{
  "version": "1.0",
  "truncation": null,
  "padding": null,
  "added_tokens": [
    {
      "id": 0,
      "content": "<PAD>",
      "single_word": false,
      "lstrip": false,
      "rstrip": false,
      "normalized": false,
      "special": true
    },
    {
      "id": 1,
      "content": "<UNK>",
      "single_word": false,
      "lstrip": false,
      "rstrip": false,
      "normalized": false,
      "special": true
    },
    {
      "id": 2,
      "content": "<BOS>",
      "single_word": false,
      "lstrip": false,
      "rstrip": false,
      "normalized": false,
      "special": true
    },
    {
      "id": 3,
      "content": "<EOS>",
      "single_word": false,
      "lstrip": false,
      "rstrip": false,
      "normalized": false,
      "special": true
    },
    {
      "id": 4,
      "content": "<MASK>",
      "single_word": false,
      "lstrip": false,
      "rstrip": false,
      "normalized": false,
      "special": true
    }
  ],
  "normalizer": null,
  "pre_tokenizer": {
    "type": "ByteLevel",
    "add_prefix_space": false,
    "trim_offsets": true,
    "use_regex": true
  },
  "post_processor": null,
  "decoder": {
    "type": "ByteLevel",
    "add_prefix_space": true,
    "trim_offsets": true,
    "use_regex": true
  },
  "model": {
    "type": "BPE",
    "dropout": null,
    "unk_token": "<UNK>",
    "continuing_subword_prefix": null,
    "end_of_word_suffix": null,
    "fuse_unk": false,
    "byte_fallback": false,
    "ignore_merges": false,
    "vocab": {
      "<PAD>": 0,
      "<UNK>": 1,
      "<BOS>": 2,
      "<EOS>": 3,
      "<MASK>": 4,
      "!": 5,
      "\"": 6,
      "#": 7,
      "$": 8,
      "%": 9,
      "&": 10,
      "'": 11,
      "(": 12,
      ")": 13,
      "*": 14,
      "+": 15,
      ",": 16,
      "-": 17,
      ".": 18,
      "/": 19,
      "0": 20,
      "1": 21,
      "2": 22,
      "3": 23,
      "4": 24,
      "5": 25,
      "6": 26,
      "7": 27,
      "8": 28,
      "9": 29,
      ":": 30,
      ";": 31,
      "<": 32,
      "=": 33,
      ">": 34,
      "?": 35,
      "@": 36,
      "A": 37,
      "B": 38,
      "C": 39,
      "D": 40,
      "E": 41,
      "F": 42,
      "G": 43,
      "H": 44,
      "I": 45,
      "J": 46,
      "K": 47,
      "L": 48,
      "M": 49,
      "N": 50,
      "O": 51,
      "P": 52,
      "Q": 53,
      "R": 54,
      "S": 55,
      "T": 56,
      "U": 57,
      "V": 58,
      "W": 59,
      "X": 60,
      "Y": 61,
      "Z": 62,
      "[": 63,
      "\\": 64,
      "]": 65,
      "^": 66,
      "_": 67,
      "`": 68,
      "a": 69,
      "b": 70,
      "c": 71,
      "d": 72,
      "e": 73,
      "f": 74,
      "g": 75,
      "h": 76,
      "i": 77,
      "j": 78,
      "k": 79,
      "l": 80,
      "m": 81,
      "n": 82,
      "o": 83,
      "p": 84,
      "q": 85,
      "r": 86,
      "s": 87,
      "t": 88,
      "u": 89,
      "v": 90,
      "w": 91,
      "x": 92,
      "y": 93,
      "z": 94,
      "{": 95,
      "|": 96,
      "}": 97,
      "~": 98,
      "¤": 99,
      "¦": 100,
      "©": 101,
      "¬": 102,
      "²": 103,
      "¶": 104,
      "º": 105,
      "¼": 106,
      "½": 107,
      "¿": 108,
      "Â": 109,
      "Ã": 110,
      "Ä": 111,
      "Å": 112,
      "Ð": 113,
      "Ñ": 114,
      "â": 115,
      "ë": 116,
      "ì": 117,
      "ï": 118,
      "ð": 119,
      "ĉ": 120,
      "Ċ": 121,
      "č": 122,
      "Ġ": 123,
      "Ģ": 124,
      "ģ": 125,
      "Ĥ": 126,
      "ĥ": 127,
      "ħ": 128,
      "Ĩ": 129,
      "ī": 130,
      "į": 131,
      "İ": 132,
      "ı": 133,
      "Ĳ": 134,
      "ĳ": 135,
      "Ĵ": 136,
      "Ķ": 137,
      "ķ": 138,
      "Ĺ": 139,
      "ĺ": 140,
      "Ļ": 141,
      "Ľ": 142,
      "ľ": 143,
      "Ŀ": 144,
      "Ł": 145,
      "ł": 146,
      "ĠĠ": 147,
      "ĠĠĠĠ": 148,
      "Ġt": 149,
      "on": 150,
      "er": 151,
      "Ġa": 152,
      "in": 153,
      "es": 154,
      "ĠĠĠ": 155,
      "ĠĠĠĠĠĠĠĠ": 156,
      "at": 157,
      "or": 158,
      "as": 159,
      "he": 160,
      "re": 161,
      "en": 162,
      "Ġs": 163,
      "Ġc": 164,
      "Ġf": 165,
      "--": 166,
      "de": 167,
      "Ġi": 168,
      "ion": 169,
      "las": 170,
      "Ġthe": 171,
      "pp": 172,
      "le": 173,
      "est": 174,
      "al": 175,
      "ou": 176,
      "Ġw": 177,
      "ĠĠĠĠĠĠĠ": 178,
      "it": 179,
      "lask": 180,
      "se": 181,
      "Ġ=": 182,
      "me": 183,
      "st": 184,
      "an": 185,
      "ct": 186,
      "Ġb": 187,
      "mp": 188,
      "@@": 189,
      "ing": 190,
      "ex": 191,
      "Ġin": 192,
      "ĊĠ": 193,
      "li": 194,
      "ĊĠĠĠĠĠĠĠĠ": 195,
      "``": 196,
      "Ġto": 197,
      "Ġre": 198,
      "ar": 199,
      "Ġp": 200,
      "----": 201,
      "lo": 202,
      "):": 203,
      "ro": 204,
      "Ġde": 205,
      "ur": 206,
      "ge": 207,
      "Ġo": 208,
      "ent": 209,
      "Ġapp": 210,
      "Ġ-": 211,
      "Ġth": 212,
      "ser": 213,
      "Ġ'": 214,
      "qu": 215,
      "ĊĠĠĠĠ": 216,
      "il": 217,
      "==": 218,
      "Ġm": 219,
      "Ġr": 220,
      "app": 221,
      "Ġis": 222,
      "Ġn": 223,
      "ed": 224,
      "Ġd": 225,
      "Ġh": 226,
      "Ġan": 227,
      "un": 228,
      "ame": 229,
      "th": 230,
      "('": 231,
      "Ġse": 232,
      "')": 233,
      "ort": 234,
      "Ġas": 235,
      "ation": 236,
      "lf": 237,
      "is": 238,
      "ad": 239,
      "Ġ+": 240,
      "you": 241,
      "fi": 242,
      "ce": 243,
      "ith": 244,
      "Ġdef": 245,
      "Ġ@@": 246,
      "sert": 247,
      "od": 248,
      "Flask": 249,
      "Ġu": 250,
      "pt": 251,
      "Ġyou": 252,
      "ue": 253,
      "quest": 254,
      "ĠĠĠĠĠĠĠĠĠĠĠ": 255,
      "ext": 256,
      "Ġ:": 257,
      "__": 258,
      "co": 259,
      "ate": 260,
      "ac": 261,
      "ĠT": 262,
      "ot": 263,
      "mport": 264,
      "lic": 265,
      "te": 266,
      "Ġfor": 267,
      "Ġand": 268,
      "and": 269,
      "ver": 270,
      "',": 271,
      "test": 272,
      "rom": 273,
      "Ġbe": 274,
      "ect": 275,
      "ul": 276,
      "lass": 277,
      "Ġflask": 278,
      "sion": 279,
      "\"\"": 280,
      "vi": 281,
      "Ġwith": 282,
      "Ġ``": 283,
      "Ġthat": 284,
      "Ġof": 285,
      ":`": 286,
      "get": 287,
      "ic": 288,
      "Ġimport": 289,
      "ve": 290,
      "tt": 291,
      "--------": 292,
      "ata": 293,
      "ont": 294,
      "ke": 295,
      "Ġassert": 296,
      "Ġself": 297,
      "urn": 298,
      "lication": 299,
      "turn": 300,
      "ly": 301,
      "ut": 302,
      "()": 303,
      "Ġex": 304,
      "ror": 305,
      "Ġreturn": 306,
      "Ġif": 307,
      "====": 308,
      "ri": 309,
      "Ġ#": 310,
      "Ġtest": 311,
      "flask": 312,
      "Ġrv": 313,
      "ter": 314,
      "end": 315,
      "ption": 316,
      "name": 317,
      "ase": 318,
      "ction": 319,
      "age": 320,
      "py": 321,
      "ack": 322,
      "Ġon": 323,
      "ĊĠĊ": 324,
      "ment": 325,
      "ow": 326,
      "Ġnot": 327,
      "Ġit": 328,
      "Ġco": 329,
      "Ġfrom": 330,
      "ject": 331,
      "('/": 332,
      "ĠFlask": 333,
      "mpl": 334,
      "Ġ==": 335,
      "Ġ`": 336,
      "Ġst": 337,
      "ld": 338,
      "val": 339,
      "..": 340,
      "for": 341,
      "ttp": 342,
      "Ġe": 343,
      "int": 344,
      "::": 345,
      "pe": 346,
      "ug": 347,
      "Ġclass": 348,
      "ab": 349,
      "Ġ(": 350,
      "self": 351,
      "ĠI": 352,
      "onfi": 353,
      "meth": 354,
      "data": 355,
      "onfig": 356,
      "ath": 357,
      "request": 358,
      "Ġapplication": 359,
      "ch": 360,
      "one": 361,
      "Ġcan": 362,
      "ess": 363,
      "Ġuse": 364,
      "ĠĠĠĠĠĠĠĠĠĠĠĠĠĠĠĠ": 365,
      "ew": 366,
      "Ġ\"": 367,
      "lient": 368,
      "Ġlo": 369,
      "oo": 370,
      "bject": 371,
      "error": 372,
      "andl": 373,
      "ontext": 374,
      "ule": 375,
      "():": 376,
      "ill": 377,
      "unction": 378,
      "ult": 379,
      "//": 380,
      "Ġthis": 381,
      "ĊĠĠĠĠĠĠĠĠĠĠĠĠ": 382,
      "gi": 383,
      "url": 384,
      "ĠN": 385,
      "ĠS": 386,
      "://": 387,
      "Ġ_": 388,
      "mple": 389,
      "ht": 390,
      "ere": 391,
      "ception": 392,
      "Ġsu": 393,
      "Ġare": 394,
      "com": 395,
      "rou": 396,
      "Ġrequest": 397,
      "Ġor": 398,
      "Ġal": 399,
      "ers": 400,
      "js": 401,
      "\"\"\"": 402,
      "~~": 403,
      "nd": 404,
      "Ġwill": 405,
      "mplate": 406,
      "ag": 407,
      "json": 408,
      "Ġdo": 409,
      "path": 410,
      "thon": 411,
      "pr": 412,
      "all": 413,
      "Ġfi": 414,
      "['": 415,
      "ĠW": 416,
      "assert": 417,
      "id": 418,
      "out": 419,
      "']": 420,
      "ĠĠĠĠĠĠĠĠĠĠĠĠĠĠĠ": 421,
      "file": 422,
      "ĠA": 423,
      "esp": 424,
      "ĠP": 425,
      "ĠF": 426,
      "Ġinst": 427,
      "po": 428,
      "di": 429,
      "Ġpro": 430,
      "alle": 431,
      "ĊĠĊĠĠĠĠ": 432,
      "able": 433,
      "ĠThe": 434,
      "Ġfunction": 435,
      "value": 436,
      "Ġl": 437,
      "ession": 438,
      "00": 439,
      "Ġwe": 440,
      "Ġ@": 441,
      "odule": 442,
      "ig": 443,
      "ze": 444,
      "def": 445,
      "am": 446,
      "ĠTh": 447,
      "ime": 448,
      "ype": 449,
      "ite": 450,
      "up": 451,
      "Ġ\"\"\"": 452,
      "Ġby": 453,
      "atic": 454,
      "ma": 455,
      "rue": 456,
      "Ġwh": 457,
      "ault": 458,
      "Test": 459,
      "espon": 460,
      "Ġg": 461,
      "vir": 462,
      "10": 463,
      "ml": 464,
      "method": 465,
      "lue": 466,
      "dex": 467,
      "Ġen": 468,
      "print": 469,
      "Ġte": 470,
      "ded": 471,
      "========": 472,
      "llo": 473,
      "Ġso": 474,
      "lueprint": 475,
      "ave": 476,
      "Re": 477,
      "Ġdi": 478,
      "Ġli": 479,
      "Ġyour": 480,
      "esponse": 481,
      "to": 482,
      "andler": 483,
      "class": 484,
      "Ġset": 485,
      "ĠNone": 486,
      "ub": 487,
      "ython": 488,
      "qual": 489,
      "Ġ2": 490,
      "ĠB": 491,
      "http": 492,
      "code": 493,
      "ackage": 494,
      "ename": 495,
      "ON": 496,
      "Ġhttp": 497,
      "Ġ0": 498,
      "__)": 499,
      "from": 500,
      "Ġma": 501,
      "ĠU": 502,
      "ally": 503,
      "Ġfile": 504,
      "cri": 505,
      "gist": 506,
      "ĠThis": 507,
      "si": 508,
      "key": 509,
      "Er": 510,
      "arg": 511,
      "ĠC": 512,
      "Ġ<": 513,
      "do": 514,
      "12": 515,
      "html": 516,
      "ts": 517,
      "view": 518,
      "ost": 519,
      "kze": 520,
      "erkze": 521,
      "Ġhave": 522,
      "erkzeug": 523,
      "(__": 524,
      "Error": 525,
      "ĠH": 526,
      "ilename": 527,
      "env": 528,
      "equal": 529,
      "ra": 530,
      "Ġ..": 531,
      "rect": 532,
      "template": 533,
      "sing": 534,
      "context": 535,
      "ore": 536,
      "ould": 537,
      "gister": 538,
      ":`~": 539,
      "Ġ*": 540,
      "Ġ{": 541,
      "Ġerror": 542,
      "bug": 543,
      "Ġad": 544,
      "`_": 545,
      "viron": 546,
      "Ġ1": 547,
      "ok": 548,
      "TestC": 549,
      "config": 550,
      "Ġclient": 551,
      "TestCase": 552,
      "Ġdata": 553,
      "ust": 554,
      "----------------": 555,
      "Ġmethod": 556,
      "Ġobject": 557,
      "Ġun": 558,
      "version": 559,
      "='": 560,
      "cript": 561,
      "route": 562,
      "head": 563,
      "ĠM": 564,
      "ci": 565,
      "tr": 566,
      "('/')": 567,
      "erver": 568,
      "Ġconfig": 569,
      "Ex": 570,
      "so": 571,
      "us": 572,
      "mand": 573,
      "ure": 574,
      "load": 575,
      "client": 576,
      "Ġsh": 577,
      "ys": 578,
      "Ġ%": 579,
      "atch": 580,
      "ample": 581,
      "application": 582,
      "Ġname": 583,
      "form": 584,
      "SE": 585,
      "'s": 586,
      "ach": 587,
      "11": 588,
      "our": 589,
      "Ġrun": 590,
      "cess": 591,
      "ance": 592,
      "ind": 593,
      "nt": 594,
      "gg": 595,
      "':": 596,
      "ail": 597,
      "alled": 598,
      "\",": 599,
      "Ġcom": 600,
      "ck": 601,
      "args": 602,
      "type": 603,
      "Ġfo": 604,
      "ca": 605,
      "ja": 606,
      "Ġcre": 607,
      "ĠIf": 608,
      "ĠĠĠĠĠ": 609,
      "set": 610,
      "ĊĠĠĠĠĠĠĠĠĠĠĠĠĠĠĠĠ": 611,
      "fo": 612,
      "ise": 613,
      "Ġget": 614,
      "ry": 615,
      "inst": 616,
      "ant": 617,
      "ument": 618,
      "Ġpas": 619,
      "ork": 620,
      "Ġcode": 621,
      "pre": 622,
      "rv": 623,
      "ound": 624,
      "hen": 625,
      "use": 626,
      "14": 627,
      "~~~~": 628,
      "nal": 629,
      "ther": 630,
      "inja": 631,
      "min": 632,
      "alse": 633,
      "om": 634,
      "Ġvalue": 635,
      "foo": 636,
      "cs": 637,
      "Ġext": 638,
      "Ġcon": 639,
      "ip": 640,
      "ension": 641,
      "Ġcontext": 642,
      "art": 643,
      "with": 644,
      "Ġch": 645,
      "su": 646,
      ").": 647,
      "hel": 648,
      "ich": 649,
      "et": 650,
      "Ġserver": 651,
      "ard": 652,
      "TT": 653,
      "org": 654,
      "Ġbut": 655,
      "ord": 656,
      "static": 657,
      "gin": 658,
      "RL": 659,
      "ĠPython": 660,
      "Ġurl": 661,
      "che": 662,
      "Ġdefault": 663,
      "Ġ[": 664,
      "Ġmore": 665,
      "Ġuser": 666,
      "ory": 667,
      "(\"": 668,
      "the": 669,
      "par": 670,
      "ĠL": 671,
      "13": 672,
      "),": 673,
      "15": 674,
      "Ġ#:": 675,
      "rent": 676,
      "ari": 677,
      "act": 678,
      "bu": 679,
      "ĠJ": 680,
      "ates": 681,
      "own": 682,
      "ĠD": 683,
      "Ġused": 684,
      "pro": 685,
      "Ġwhich": 686,
      "add": 687,
      "Ġne": 688,
      "Ġmodule": 689,
      "Ġhttps": 690,
      "handler": 691,
      "Ġexp": 692,
      "None": 693,
      "session": 694,
      "))": 695,
      "if": 696,
      "exception": 697,
      "ĠURL": 698,
      "import": 699,
      "ĠIn": 700,
      "llow": 701,
      "ages": 702,
      "allets": 703,
      "True": 704,
      "ptions": 705,
      "base": 706,
      "fun": 707,
      "Ġ4": 708,
      "16": 709,
      "fix": 710,
      "index": 711,
      "Ġversion": 712,
      "Ġstr": 713,
      "Ġ.": 714,
      "ff": 715,
      "Ġend": 716,
      "Ġadd": 717,
      "Ġsession": 718,
      "ĠR": 719,
      "ull": 720,
      "cal": 721,
      "module": 722,
      "object": 723,
      "ref": 724,
      "ive": 725,
      "Ġab": 726,
      "Request": 727,
      "ST": 728,
      "Ġwork": 729,
      "res": 730,
      "ec": 731,
      "Ġresponse": 732,
      "`.": 733,
      "nder": 734,
      "filename": 735,
      "ated": 736,
      "Ġ__": 737,
      "Ġos": 738,
      "la": 739,
      "Ġexception": 740,
      "atus": 741,
      "Ġwhen": 742,
      "SON": 743,
      "Ġv": 744,
      "low": 745,
      "ithub": 746,
      "aise": 747,
      "main": 748,
      "Ġcont": 749,
      "Ġtemplate": 750,
      "Ġout": 751,
      "ctx": 752,
      "ild": 753,
      "urrent": 754,
      "ity": 755,
      "Ġview": 756,
      "ls": 757,
      "Ġ}": 758,
      "Exception": 759,
      "Ġalso": 760,
      "=\"": 761,
      "pport": 762,
      "Ġ3": 763,
      "Ġup": 764,
      "TTP": 765,
      "23": 766,
      "ial": 767,
      "ning": 768,
      "ie": 769,
      "af": 770,
      "github": 771,
      "func": 772,
      "Ġsi": 773,
      "Ġexample": 774,
      "Ġshould": 775,
      "Ġall": 776,
      "host": 777,
      "per": 778,
      "Ġlike": 779,
      "con": 780,
      "nect": 781,
      "uration": 782,
      "````": 783,
      "user": 784,
      "In": 785,
      "ĊĠĊĠĠĠĠĠĠĠĠ": 786,
      "peci": 787,
      "Ġat": 788,
      "ual": 789,
      "Ġwant": 790,
      "19": 791,
      "Ġpy": 792,
      "Ġcreate": 793,
      "mit": 794,
      "Ġpo": 795,
      "Ġpar": 796,
      "lder": 797,
      "').": 798,
      "Ġpass": 799,
      "str": 800,
      "Ġatt": 801,
      "Ġextension": 802,
      "ache": 803,
      "ode": 804,
      "time": 805,
      "default": 806,
      "Ġval": 807,
      "ange": 808,
      "ary": 809,
      "Ġhas": 810,
      "Ġfollow": 811,
      "Ġthere": 812,
      "Ġinstall": 813,
      "init": 814,
      "ML": 815,
      "pen": 816,
      "Ġmake": 817,
      "jinja": 818,
      "Ġcalled": 819,
      "pallets": 820,
      "Ġindex": 821,
      "Ġar": 822,
      "Ġac": 823,
      "cept": 824,
      "'t": 825,
      "EN": 826,
      "ator": 827,
      "fore": 828,
      "Ġhow": 829,
      "ET": 830,
      "ĠV": 831,
      "Ġhandl": 832,
      "em": 833,
      "Ġraise": 834,
      "headers": 835,
      "22": 836,
      "GI": 837,
      "Ġinter": 838,
      "Ġdebug": 839,
      "ead": 840,
      "ules": 841,
      "ine": 842,
      "ink": 843,
      "ang": 844,
      "+..": 845,
      "iles": 846,
      "point": 847,
      "\")": 848,
      "ĊĠĠ": 849,
      "Ġcommand": 850,
      "instance": 851,
      "Ġconfiguration": 852,
      "rst": 853,
      "Ġusing": 854,
      "ĠO": 855,
      "Ġdoes": 856,
      "cor": 857,
      "direct": 858,
      "17": 859,
      "Ġinto": 860,
      "ble": 861,
      "db": 862,
      "Ġsupport": 863,
      "ong": 864,
      "register": 865,
      "Ġkey": 866,
      "help": 867,
      "velo": 868,
      "+-": 869,
      "read": 870,
      "Ġsub": 871,
      "26": 872,
      "attr": 873,
      "Ġmess": 874,
      "Ġact": 875,
      "python": 876,
      "Ġblueprint": 877,
      "Ġprovi": 878,
      "Ġtry": 879,
      "ĠFor": 880,
      "bp": 881,
      "bar": 882,
      "You": 883,
      "imetype": 884,
      "LA": 885,
      "ues": 886,
      "ource": 887,
      "27": 888,
      "``.": 889,
      "debug": 890,
      "Ġregister": 891,
      "¿½": 892,
      "ï¿½": 893,
      "environ": 894,
      "sed": 895,
      "be": 896,
      "Ġaut": 897,
      "Ġwas": 898,
      "jo": 899,
      "Ġfilename": 900,
      "cause": 901,
      "18": 902,
      "TML": 903,
      "Ġres": 904,
      "ight": 905,
      "ER": 906,
      "lease": 907,
      "Ġ**": 908,
      "mod": 909,
      "ĠTrue": 910,
      "</": 911,
      "my": 912,
      "Ġmod": 913,
      "Ġone": 914,
      "Ġdatabase": 915,
      "._": 916,
      "cument": 917,
      "ay": 918,
      "IN": 919,
      "kw": 920,
      "sp": 921,
      "ION": 922,
      "tx": 923,
      "29": 924,
      "send": 925,
      "response": 926,
      "Ġno": 927,
      "local": 928,
      "Ġhandler": 929,
      "Ġsome": 930,
      "date": 931,
      "mplates": 932,
      "Ġarg": 933,
      "qui": 934,
      "put": 935,
      "Ġenviron": 936,
      "Ġsee": 937,
      "join": 938,
      "ww": 939,
      "24": 940,
      "lash": 941,
      "velop": 942,
      "He": 943,
      "du": 944,
      "ĠĠĠĠĠĠ": 945,
      "================": 946,
      "The": 947,
      "Package": 948,
      "Ġ\\": 949,
      "status": 950,
      "ĊĠĊĠĊ": 951,
      "ased": 952,
      "lse": 953,
      "ain": 954,
      "ilter": 955,
      "kwargs": 956,
      "Object": 957,
      "Ġwerkzeug": 958,
      "20": 959,
      "ener": 960,
      "Bound": 961,
      "cre": 962,
      "ition": 963,
      "PackageBound": 964,
      "PackageBoundObject": 965,
      "Ġnew": 966,
      "Ġsys": 967,
      "Ġcurrent": 968,
      "dir": 969,
      "Ġother": 970,
      "ws": 971,
      "lick": 972,
      "Ġonly": 973,
      "gger": 974,
      "Ġelse": 975,
      "Hello": 976,
      "package": 977,
      "ribu": 978,
      "Ġneed": 979,
      "ribute": 980,
      "ME": 981,
      "25": 982,
      "cod": 983,
      "Ġspeci": 984,
      "param": 985,
      "Ġload": 986,
      "(_": 987,
      "blueprint": 988,
      "ignal": 989,
      "Ġdirect": 990,
      "info": 991,
      "Ġdep": 992,
      "Ġinstead": 993,
      "ĊĠĠĠ": 994,
      "Ġcall": 995,
      "domain": 996,
      "ify": 997,
      "Ġvari": 998,
      "Ġfiles": 999,
      "admin": 1000,
      "prefix": 1001,
      "Ġpython": 1002,
      "your": 1003,
      "command": 1004,
      "Ġ20": 1005,
      "Ġpath": 1006,
      "idd": 1007,
      "ty": 1008,
      "False": 1009,
      "ĠĠĠĠĠĠĠĠĠĠĠĠĠĠĠĠĠĠĠĠĠĠĠĠ": 1010,
      "https": 1011,
      "OST": 1012,
      "ll": 1013,
      "Ġj": 1014,
      "Ġmethods": 1015,
      "Ġnow": 1016,
      "-..": 1017,
      "arning": 1018,
      "okie": 1019,
      "ven": 1020,
      "word": 1021,
      "docs": 1022,
      "wsgi": 1023,
      "les": 1024,
      "Ġpytest": 1025,
      "Ġjson": 1026,
      "33": 1027,
      "exc": 1028,
      "Ġfollowing": 1029,
      "Ġtext": 1030,
      "vel": 1031,
      "ans": 1032,
      "andle": 1033,
      "flaskr": 1034,
      "Ġlook": 1035,
      "Ġhere": 1036,
      "ile": 1037,
      "'])": 1038,
      "patch": 1039,
      "root": 1040,
      "ark": 1041,
      "FlaskTestCase": 1042,
      "ies": 1043,
      "Ġ%}": 1044,
      "GET": 1045,
      "Ġ$": 1046,
      "der": 1047,
      "not": 1048,
      "Ġargument": 1049,
      "ays": 1050,
      "mon": 1051,
      "log": 1052,
      "iz": 1053,
      "ved": 1054,
      "ĠJSON": 1055,
      "ace": 1056,
      "Ġvalues": 1057,
      "options": 1058,
      "RE": 1059,
      "filter": 1060,
      ",-": 1061,
      "orld": 1062,
      "are": 1063,
      "Ġmessage": 1064,
      "back": 1065,
      "lu": 1066,
      "ql": 1067,
      "ĠFalse": 1068,
      "omatic": 1069,
      "Th": 1070,
      "Ġdis": 1071,
      "Ġenvironment": 1072,
      "Ġ/": 1073,
      "Ġpackage": 1074,
      "().": 1075,
      "Ġlist": 1076,
      "ery": 1077,
      "werkzeug": 1078,
      "42": 1079,
      "cli": 1080,
      "ating": 1081,
      "lock": 1082,
      "ĠHTTP": 1083,
      "run": 1084,
      "very": 1085,
      "formation": 1086,
      "ardown": 1087,
      "Ġisinstance": 1088,
      "Ġlog": 1089,
      "SGI": 1090,
      "Ġ)": 1091,
      "ersion": 1092,
      "asic": 1093,
      "Ġscript": 1094,
      "Ġbecause": 1095,
      "Ġover": 1096,
      "Ġ(`": 1097,
      "text": 1098,
      "vail": 1099,
      "vailable": 1100,
      "ense": 1101,
      "side": 1102,
      "PT": 1103,
      "POST": 1104,
      ">`_": 1105,
      "cation": 1106,
      "hed": 1107,
      "render": 1108,
      "Ġmode": 1109,
      "04": 1110,
      "ffer": 1111,
      "corator": 1112,
      "Ġjust": 1113,
      "avi": 1114,
      "Ġdocument": 1115,
      "~~~~~~~~": 1116,
      "ist": 1117,
      "ep": 1118,
      "yst": 1119,
      "ystem": 1120,
      "gh": 1121,
      "roup": 1122,
      "nection": 1123,
      "Ġinformation": 1124,
      "ails": 1125,
      "Ġfolder": 1126,
      "lean": 1127,
      "tual": 1128,
      "Ġ(`#": 1129,
      "Ġfind": 1130,
      "ĠTest": 1131,
      "ms": 1132,
      "Ġthen": 1133,
      "Ġus": 1134,
      "ĠE": 1135,
      "Ġthem": 1136,
      "`_)": 1137,
      "Ġinstance": 1138,
      "simple": 1139,
      "achment": 1140,
      "afe": 1141,
      "velopment": 1142,
      "Ġany": 1143,
      "AME": 1144,
      "ustom": 1145,
      "Ġle": 1146,
      "Ġexcept": 1147,
      "Ġ_#": 1148,
      "Ġsetup": 1149,
      "ĠYou": 1150,
      "heck": 1151,
      "ected": 1152,
      "ĠIt": 1153,
      "30": 1154,
      "link": 1155,
      "Ġfunctions": 1156,
      ">>": 1157,
      "script": 1158,
      "lob": 1159,
      "IC": 1160,
      "Ġcase": 1161,
      "ever": 1162,
      "------------": 1163,
      "ools": 1164,
      "ces": 1165,
      "Ġpre": 1166,
      "NAME": 1167,
      "Ġtype": 1168,
      "Ġresult": 1169,
      "lobal": 1170,
      "red": 1171,
      "mplement": 1172,
      "idden": 1173,
      "ove": 1174,
      "ittest": 1175,
      "'))": 1176,
      "bidden": 1177,
      "lat": 1178,
      "ign": 1179,
      "Ġstring": 1180,
      "Ġapplications": 1181,
      "tern": 1182,
      "ĠRe": 1183,
      "Ġ}}": 1184,
      "ast": 1185,
      "Ġsame": 1186,
      "dd": 1187,
      "stack": 1188,
      "uild": 1189,
      "AP": 1190,
      "no": 1191,
      "Ġtime": 1192,
      "gging": 1193,
      "yourapplication": 1194,
      "coo": 1195,
      "Ġgo": 1196,
      "virtual": 1197,
      "sh": 1198,
      "34": 1199,
      "ĠĠĠĠĠĠĠĠĠĠĠĠĠĠĠĠĠĠĠ": 1200,
      "ĠHTML": 1201,
      "localhost": 1202,
      "ght": 1203,
      "sub": 1204,
      "Ġent": 1205,
      "Ġflaskr": 1206,
      "man": 1207,
      "Ġk": 1208,
      "Ġbeh": 1209,
      "Ġback": 1210,
      "Ġrender": 1211,
      "Ġpage": 1212,
      "Ġgener": 1213,
      "Ġstatic": 1214,
      "hin": 1215,
      "row": 1216,
      "Ġ::": 1217,
      "pocoo": 1218,
      "hinx": 1219,
      "Ġme": 1220,
      "post": 1221,
      "AD": 1222,
      "ĠG": 1223,
      "Ġthey": 1224,
      "ises": 1225,
      "lose": 1226,
      "ĠVersion": 1227,
      "ting": 1228,
      "``,": 1229,
      "Ġchange": 1230,
      "Ġsend": 1231,
      "Ġexec": 1232,
      "Ġstart": 1233,
      "Ġfirst": 1234,
      "36": 1235,
      "500": 1236,
      "wr": 1237,
      "Ġdate": 1238,
      "Ġaccess": 1239,
      "Ġwould": 1240,
      "Ġhandlers": 1241,
      "ese": 1242,
      "pytest": 1243,
      "35": 1244,
      "function": 1245,
      "ĠNot": 1246,
      "ĠWSGI": 1247,
      "SK": 1248,
      "append": 1249,
      "copy": 1250,
      "Ġdepend": 1251,
      "Ġmight": 1252,
      "Ġ----------------": 1253,
      "Ġform": 1254,
      "Ġsure": 1255,
      "ake": 1256,
      "testing": 1257,
      "pop": 1258,
      "Ġautomatic": 1259,
      "px": 1260,
      "exp": 1261,
      "rib": 1262,
      ".__": 1263,
      "Ġoptions": 1264,
      "This": 1265,
      "21": 1266,
      "br": 1267,
      "rule": 1268,
      "Ġway": 1269,
      "ick": 1270,
      "header": 1271,
      "Ġopen": 1272,
      "pes": 1273,
      "ĊĠĊĠ": 1274,
      "Ġrequi": 1275,
      "Ġdet": 1276,
      "TE": 1277,
      "os": 1278,
      "comp": 1279,
      "Ġallow": 1280,
      "+:": 1281,
      "ner": 1282,
      "Ġ|": 1283,
      "LASK": 1284,
      "Ġspecifi": 1285,
      "mess": 1286,
      "tmp": 1287,
      "license": 1288,
      "right": 1289,
      "Ġctx": 1290,
      "example": 1291,
      "SD": 1292,
      "ger": 1293,
      "ifi": 1294,
      "ackages": 1295,
      "'),": 1296,
      "('/',": 1297,
      "Ġvariable": 1298,
      "BU": 1299,
      "ous": 1300,
      "28": 1301,
      "bj": 1302,
      "ful": 1303,
      "added": 1304,
      "Ġdiffer": 1305,
      "{{": 1306,
      "Ġtests": 1307,
      "For": 1308,
      "cur": 1309,
      "sql": 1310,
      "ĠWerkzeug": 1311,
      "Ġcheck": 1312,
      "SER": 1313,
      "coding": 1314,
      "pull": 1315,
      "Ġcontent": 1316,
      "ializ": 1317,
      "Ġlat": 1318,
      "OO": 1319,
      "ook": 1320,
      "JSON": 1321,
      "Ġdecorator": 1322,
      "Ġca": 1323,
      "sue": 1324,
      "ĠX": 1325,
      "Ġinit": 1326,
      "Ġendpoint": 1327,
      "Ġconnection": 1328,
      "att": 1329,
      "Ġhandle": 1330,
      "Ġwithout": 1331,
      "ĠEx": 1332,
      "Ġtr": 1333,
      "ĠWorld": 1334,
      "(\"/": 1335,
      "des": 1336,
      "Ġhelp": 1337,
      "virtualenv": 1338,
      "close": 1339,
      "ass": 1340,
      "Ġextensions": 1341,
      "im": 1342,
      "Ġgi": 1343,
      "Ġbefore": 1344,
      "after": 1345,
      "PTION": 1346,
      "Ġ['": 1347,
      "Ġautomatically": 1348,
      "pla": 1349,
      "Ġ[]": 1350,
      "tag": 1351,
      "HTTP": 1352,
      "iv": 1353,
      "iew": 1354,
      "Ġimplement": 1355,
      "login": 1356,
      "Ġdetails": 1357,
      "Ġavailable": 1358,
      "make": 1359,
      "before": 1360,
      "__(": 1361,
      "ee": 1362,
      "ir": 1363,
      "Ġmimetype": 1364,
      "lobals": 1365,
      "ĠBSD": 1366,
      "fter": 1367,
      "Ġ{%": 1368,
      "copyright": 1369,
      "80": 1370,
      "esca": 1371,
      "59": 1372,
      "mimetype": 1373,
      "ignals": 1374,
      "Ġqu": 1375,
      "ĠWe": 1376,
      "Ġregistered": 1377,
      "ged": 1378,
      "ameter": 1379,
      "ĠRequest": 1380,
      "setup": 1381,
      "actory": 1382,
      "chemy": 1383,
      "\">": 1384,
      "Ġdon": 1385,
      "())": 1386,
      "Ġexc": 1387,
      "Ġ'/": 1388,
      "issing": 1389,
      "Ġeas": 1390,
      "we": 1391,
      "Ġsystem": 1392,
      "ilent": 1393,
      "Ġdes": 1394,
      "ody": 1395,
      "raises": 1396,
      "loader": 1397,
      "Ġdocumentation": 1398,
      "Ġenable": 1399,
      "AT": 1400,
      "App": 1401,
      "gr": 1402,
      "ither": 1403,
      "Ġtemplates": 1404,
      "mething": 1405,
      "ĠTo": 1406,
      "Ġwhere": 1407,
      "44": 1408,
      "cont": 1409,
      "handl": 1410,
      "PTIONS": 1411,
      "av": 1412,
      "ix": 1413,
      "Ġsource": 1414,
      "Ġdb": 1415,
      "Ġsimple": 1416,
      "````````": 1417,
      "Ġrelease": 1418,
      "ĠĠĠĠĠĠĠĠĠĠĠĠĠĠĠĠĠĠĠĠĠĠĠĠĠĠĠĠĠĠĠĠ": 1419,
      "ings": 1420,
      "Ġversionadded": 1421,
      "www": 1422,
      "Ġmust": 1423,
      "Ġwhat": 1424,
      "Ġpassed": 1425,
      "exceptions": 1426,
      "Blueprint": 1427,
      "aut": 1428,
      "vo": 1429,
      "Ġredirect": 1430,
      "Ġline": 1431,
      "\"]": 1432,
      "Lo": 1433,
      "---": 1434,
      "Ġbp": 1435,
      "endpoint": 1436,
      "Ġinstalled": 1437,
      "dict": 1438,
      "ĠDe": 1439,
      "mb": 1440,
      "pi": 1441,
      "Ġpart": 1442,
      "oolean": 1443,
      "Ġproject": 1444,
      "uct": 1445,
      "Ġpr": 1446,
      "loy": 1447,
      "Ġlen": 1448,
      "Ġ--": 1449,
      "Ġsuch": 1450,
      "Ġdirectory": 1451,
      "site": 1452,
      "ted": 1453,
      "ĠSo": 1454,
      "SS": 1455,
      "Ġwr": 1456,
      "teardown": 1457,
      "ows": 1458,
      "Ġabout": 1459,
      "create": 1460,
      "dev": 1461,
      "Ġdevelopment": 1462,
      "ries": 1463,
      "Ġstate": 1464,
      "ING": 1465,
      ".\"\"\"": 1466,
      "icode": 1467,
      "utor": 1468,
      "build": 1469,
      "project": 1470,
      "cate": 1471,
      "tes": 1472,
      "ENSE": 1473,
      "ICENSE": 1474,
      "-#": 1475,
      "ampl": 1476,
      "Ġnext": 1477,
      "sible": 1478,
      "aries": 1479,
      "Ġprovide": 1480,
      "amples": 1481,
      "open": 1482,
      "Ġman": 1483,
      "ĠLICENSE": 1484,
      "process": 1485,
      "Ġbehavi": 1486,
      "37": 1487,
      "Ġ('": 1488,
      "Ġeach": 1489,
      "If": 1490,
      "Ġweb": 1491,
      "Ġprint": 1492,
      "Ġafter": 1493,
      "Ġexist": 1494,
      "Ġdiction": 1495,
      "tring": 1496,
      "hell": 1497,
      "arnings": 1498,
      "clu": 1499,
      "Ġwell": 1500,
      "Ġpos": 1501,
      "errorhandler": 1502,
      "DE": 1503,
      "uth": 1504,
      "leased": 1505,
      "templates": 1506,
      "el": 1507,
      "cookie": 1508,
      "ables": 1509,
      "ĠHere": 1510,
      "Ġattribute": 1511,
      "Ġdifferent": 1512,
      "`,": 1513,
      "cond": 1514,
      "round": 1515,
      "ured": 1516,
      "Ġparameter": 1517,
      "APP": 1518,
      "attachment": 1519,
      "var": 1520,
      "mps": 1521,
      "Ġcomp": 1522,
      "Ġlibr": 1523,
      "Ġdatetime": 1524,
      "VER": 1525,
      "ality": 1526,
      "ternal": 1527,
      "Ġexecut": 1528,
      "\":": 1529,
      "Ke": 1530,
      "ak": 1531,
      "ames": 1532,
      "PI": 1533,
      "Ġheaders": 1534,
      "Ġrequests": 1535,
      "ĠBlueprint": 1536,
      "format": 1537,
      "tmpdir": 1538,
      "MA": 1539,
      "Ġtw": 1540,
      "itle": 1541,
      "Ġthese": 1542,
      "40": 1543,
      "licit": 1544,
      "comm": 1545,
      "Ġhandling": 1546,
      "cord": 1547,
      "Ġser": 1548,
      "Ġbrow": 1549,
      "safe": 1550,
      "Ġvery": 1551,
      "'],": 1552,
      "string": 1553,
      "Ġmodules": 1554,
      "64": 1555,
      "fr": 1556,
      "cache": 1557,
      "Ġy": 1558,
      "Ġwere": 1559,
      "Ġpoint": 1560,
      "anges": 1561,
      "utorial": 1562,
      "wit": 1563,
      "Ġcod": 1564,
      "Ġsuite": 1565,
      "ĠApp": 1566,
      "ĠUn": 1567,
      "'.": 1568,
      "54": 1569,
      "57": 1570,
      "ide": 1571,
      "install": 1572,
      "ĠLo": 1573,
      "click": 1574,
      "ĊĠĠĠĠĠĠ": 1575,
      "Ġcookie": 1576,
      "ultip": 1577,
      "Ġbrowser": 1578,
      "'):": 1579,
      "Ġroot": 1580,
      "Ġsilent": 1581,
      "globals": 1582,
      "Ġcache": 1583,
      "Ġclick": 1584,
      "Ġpip": 1585,
      "uple": 1586,
      "IL": 1587,
      "IO": 1588,
      "ream": 1589,
      "ily": 1590,
      "valid": 1591,
      "ager": 1592,
      "div": 1593,
      "sues": 1594,
      "username": 1595,
      "sphinx": 1596,
      "ribut": 1597,
      "**": 1598,
      "page": 1599,
      "upt": 1600,
      "keypatch": 1601,
      "Ġerrors": 1602,
      "Ġbehavior": 1603,
      "Ġdictionary": 1604,
      "+#": 1605,
      "sche": 1606,
      "Ġbased": 1607,
      "Ġabove": 1608,
      "Ġvirtualenv": 1609,
      "hello": 1610,
      "ĠWh": 1611,
      "38": 1612,
      "missing": 1613,
      "onach": 1614,
      "ines": 1615,
      "Ġobjects": 1616,
      "folder": 1617,
      "Ġpossible": 1618,
      "onacher": 1619,
      "face": 1620,
      "ps": 1621,
      "wise": 1622,
      "ĊĠĠĠĠĠĠĠĠĠĠĠĠĠĠĠĠĠĠĠĠĠĠĠĠ": 1623,
      "compat": 1624,
      "=['": 1625,
      "ik": 1626,
      "tests": 1627,
      "mail": 1628,
      "Ġsomething": 1629,
      "HTML": 1630,
      "Ġrule": 1631,
      "View": 1632,
      "boolean": 1633,
      "attern": 1634,
      "Ġshell": 1635,
      "modules": 1636,
      "arkup": 1637,
      "tml": 1638,
      "ways": 1639,
      "ence": 1640,
      "Group": 1641,
      "Ġz": 1642,
      "lif": 1643,
      "Ġper": 1644,
      "Ġappro": 1645,
      "Ġparse": 1646,
      "ultiple": 1647,
      "da": 1648,
      "Ġ------------": 1649,
      "apps": 1650,
      "rough": 1651,
      "Ġexport": 1652,
      "connect": 1653,
      "Ġtwo": 1654,
      "uptools": 1655,
      "39": 1656,
      "Ġhtml": 1657,
      "Ġarguments": 1658,
      "ice": 1659,
      "rmin": 1660,
      "flaskext": 1661,
      "Ġ42": 1662,
      "ĠRonacher": 1663,
      "Ġkn": 1664,
      "SERVER": 1665,
      "vent": 1666,
      "server": 1667,
      "verse": 1668,
      "forbidden": 1669,
      "89": 1670,
      "ually": 1671,
      "Ġfin": 1672,
      "uring": 1673,
      "txt": 1674,
      "QL": 1675,
      "bin": 1676,
      "ures": 1677,
      "__.": 1678,
      "Ġlong": 1679,
      "top": 1680,
      "60": 1681,
      "],": 1682,
      "lag": 1683,
      "unittest": 1684,
      "Ġprovided": 1685,
      "new": 1686,
      "Ġpla": 1687,
      "ĠTe": 1688,
      "><": 1689,
      "Function": 1690,
      "Not": 1691,
      "Ġtag": 1692,
      "Ġblock": 1693,
      "logger": 1694,
      "Ġstatus": 1695,
      "Ġorder": 1696,
      "Found": 1697,
      "action": 1698,
      "Ġcustom": 1699,
      "Ġ2010": 1700,
      "Key": 1701,
      "port": 1702,
      "Ġrecomm": 1703,
      "Ġmost": 1704,
      "keep": 1705,
      "Ġtra": 1706,
      "Ġbu": 1707,
      "list": 1708,
      "Ġworks": 1709,
      "ready": 1710,
      "+----------------": 1711,
      "[\"": 1712,
      "Ġreturns": 1713,
      "amb": 1714,
      "ĠJinja": 1715,
      "!'": 1716,
      "ments": 1717,
      "cho": 1718,
      "indows": 1719,
      "ified": 1720,
      "ambda": 1721,
      "={": 1722,
      "FLASK": 1723,
      "Run": 1724,
      "true": 1725,
      "arch": 1726,
      "appen": 1727,
      "Ġitself": 1728,
      "Ġchanges": 1729,
      "dot": 1730,
      "work": 1731,
      "ĠConfig": 1732,
      "Ġ404": 1733,
      "linker": 1734,
      "Script": 1735,
      "pass": 1736,
      "ended": 1737,
      "Ġfull": 1738,
      "Ġproble": 1739,
      "precation": 1740,
      "ason": 1741,
      "Ġfoo": 1742,
      "adRequest": 1743,
      "Ġeven": 1744,
      "methods": 1745,
      "CGI": 1746,
      "aded": 1747,
      "lit": 1748,
      "level": 1749,
      "Ġmy": 1750,
      "pypi": 1751,
      "ĠĠĠĠĠĠĠĠĠĠĠĠĠĠĠĠĠĠĠĠĠĠĠĠĠĠ": 1752,
      "OPTIONS": 1753,
      "mo": 1754,
      "match": 1755,
      "Ġour": 1756,
      "Ġbasic": 1757,
      "httpd": 1758,
      "Ġcreated": 1759,
      "setdefault": 1760,
      "ĠOn": 1761,
      "Ġlater": 1762,
      "ored": 1763,
      "Ġcatch": 1764,
      "Ġint": 1765,
      "Ġthan": 1766,
      "0000": 1767,
      "ĠBasic": 1768,
      "Ġactual": 1769,
      ">>>": 1770,
      "handlers": 1771,
      "56": 1772,
      "current": 1773,
      "git": 1774,
      "reen": 1775,
      "utf": 1776,
      "Ġeither": 1777,
      "Ġoutput": 1778,
      "block": 1779,
      "op": 1780,
      "alue": 1781,
      "Ġmultiple": 1782,
      "Ġexamples": 1783,
      "dumps": 1784,
      "kes": 1785,
      "Ġalready": 1786,
      "Ġdocs": 1787,
      "ĠArmin": 1788,
      "types": 1789,
      "Ġdependen": 1790,
      "tringIO": 1791,
      "48": 1792,
      "58": 1793,
      "fer": 1794,
      "Ġprocess": 1795,
      "Ġshow": 1796,
      "Ġworking": 1797,
      "/>`_": 1798,
      "66": 1799,
      "Context": 1800,
      "LO": 1801,
      "tension": 1802,
      "wh": 1803,
      "ĠĠĠĠĠĠĠĠĠĠ": 1804,
      "reverse": 1805,
      "Ġslash": 1806,
      "Ġ=================": 1807,
      "Ġtesting": 1808,
      "ĠURLs": 1809,
      "Ġgood": 1810,
      "07": 1811,
      "32": 1812,
      "pip": 1813,
      "Ġiter": 1814,
      "Ġbase": 1815,
      "Ġhost": 1816,
      "='/": 1817,
      "Ġaccept": 1818,
      "mber": 1819,
      "Base": 1820,
      "bo": 1821,
      "Ġbeing": 1822,
      "ontend": 1823,
      "pres": 1824,
      "ĠModule": 1825,
      "])": 1826,
      "ree": 1827,
      "Ġide": 1828,
      "ions": 1829,
      "Ġbar": 1830,
      "ular": 1831,
      "Ġvalid": 1832,
      "Ġsubdomain": 1833,
      "No": 1834,
      "ases": 1835,
      "Ġfail": 1836,
      "gine": 1837,
      "clude": 1838,
      "Ġbo": 1839,
      "rip": 1840,
      "BUG": 1841,
      "*-": 1842,
      "Ġreason": 1843,
      "entry": 1844,
      "ĠSt": 1845,
      "espace": 1846,
      "rol": 1847,
      "Ġhappen": 1848,
      "ends": 1849,
      "Ġenv": 1850,
      "Ġdist": 1851,
      "loading": 1852,
      "OR": 1853,
      "Ġmon": 1854,
      "Ġits": 1855,
      "Ġadded": 1856,
      "expected": 1857,
      "alueError": 1858,
      "eth": 1859,
      "exec": 1860,
      "Ġ-*-": 1861,
      "Ġmatch": 1862,
      "Ġalways": 1863,
      "jsonify": 1864,
      "ĠBe": 1865,
      "Ġusers": 1866,
      "ï¿½ï¿½": 1867,
      "astCGI": 1868,
      "BA": 1869,
      "dis": 1870,
      "Ġobj": 1871,
      "ĠNo": 1872,
      "loads": 1873,
      "helpers": 1874,
      "Ġuses": 1875,
      "Ġentry": 1876,
      "messages": 1877,
      "`::": 1878,
      "ol": 1879,
      "ĠĠĠĠĠĠĠĠĠ": 1880,
      "ories": 1881,
      "Ġimp": 1882,
      "let": 1883,
      "cies": 1884,
      "('/').": 1885,
      "Ġcontain": 1886,
      "split": 1887,
      "duction": 1888,
      "other": 1889,
      "ute": 1890,
      "Ġx": 1891,
      "met": 1892,
      "ĠAdd": 1893,
      "Ġunittest": 1894,
      "cret": 1895,
      "Ġspecific": 1896,
      "Cont": 1897,
      "\\\\": 1898,
      "{%": 1899,
      "Ġty": 1900,
      "ĠWhen": 1901,
      "gra": 1902,
      "ize": 1903,
      "packages": 1904,
      "ined": 1905,
      "ough": 1906,
      "Ġbuild": 1907,
      "Ġmakes": 1908,
      "Ġallows": 1909,
      "})": 1910,
      "Ġlogger": 1911,
      "Ġcommon": 1912,
      "Ġmessages": 1913,
      "Ġdirectly": 1914,
      "Ġmonkeypatch": 1915,
      "cgi": 1916,
      "appcontext": 1917,
      "pos": 1918,
      "ush": 1919,
      "49": 1920,
      "KE": 1921,
      "ware": 1922,
      "yle": 1923,
      "Ġflash": 1924,
      "Ġgu": 1925,
      "ĠRun": 1926,
      "manent": 1927,
      "Ġgiven": 1928,
      "Ġlibraries": 1929,
      "licitly": 1930,
      "/')": 1931,
      "echo": 1932,
      "signals": 1933,
      "__,": 1934,
      "Ġ200": 1935,
      "Ġconver": 1936,
      "Ġexpected": 1937,
      "registered": 1938,
      "88": 1939,
      "St": 1940,
      "Ġsche": 1941,
      "Ġdid": 1942,
      "Ġsepar": 1943,
      "Ġproper": 1944,
      "ENV": 1945,
      "Ġknow": 1946,
      "Functionality": 1947,
      "ethod": 1948,
      "HE": 1949,
      "Jinja": 1950,
      "egg": 1951,
      "Ġkwargs": 1952,
      "Ġport": 1953,
      "Ġthings": 1954,
      "Ġsecond": 1955,
      "ĠSQL": 1956,
      "ĠAd": 1957,
      "Ġgit": 1958,
      "Ġteardown": 1959,
      "views": 1960,
      "FunctionalityTestCase": 1961,
      "65": 1962,
      "Ġtop": 1963,
      "arn": 1964,
      "Ġpres": 1965,
      "issue": 1966,
      "(),": 1967,
      "Ġsubclass": 1968,
      "ansaction": 1969,
      "processor": 1970,
      "-:": 1971,
      "Ġkeep": 1972,
      "aster": 1973,
      "logging": 1974,
      "tter": 1975,
      "igin": 1976,
      "ĠThere": 1977,
      "size": 1978,
      "Ġ</": 1979,
      "Ġpassword": 1980,
      "angu": 1981,
      "Ġauto": 1982,
      "ĠBasicFunctionalityTestCase": 1983,
      "KEY": 1984,
      "74": 1985,
      "Equal": 1986,
      "down": 1987,
      "sure": 1988,
      "ĠError": 1989,
      "Ġfun": 1990,
      "Ġinte": 1991,
      "ĠPro": 1992,
      "ĠDo": 1993,
      "Ġcommands": 1994,
      "err": 1995,
      "ative": 1996,
      "Ġid": 1997,
      "Ġdict": 1998,
      "Ġlogged": 1999,
      "lative": 2000,
      "SSION": 2001,
      "anguage": 2002,
      ">=": 2003,
      "Handler": 2004,
      "Type": 2005,
      "UT": 2006,
      "less": 2007,
      "Ġcould": 2008,
      "lashed": 2009,
      "Ġpattern": 2010,
      "ility": 2011,
      "issues": 2012,
      "ĠEn": 2013,
      "voke": 2014,
      "97": 2015,
      "ghttpd": 2016,
      "pped": 2017,
      "pec": 2018,
      "ĠBy": 2019,
      "CR": 2020,
      "En": 2021,
      "requi": 2022,
      "Ġhref": 2023,
      "andard": 2024,
      "Ġstill": 2025,
      "Ġevery": 2026,
      "assertEqual": 2027,
      "(*": 2028,
      "handle": 2029,
      "Ġfactory": 2030,
      "Ġold": 2031,
      "change": 2032,
      "Ġmay": 2033,
      "message": 2034,
      ">')": 2035,
      "EST": 2036,
      "lor": 2037,
      "strip": 2038,
      "ĠPy": 2039,
      "amespace": 2040,
      "update": 2041,
      "doc": 2042,
      "okies": 2043,
      "ializer": 2044,
      "ivate": 2045,
      "ping": 2046,
      "ward": 2047,
      "ert": 2048,
      "Ġcor": 2049,
      "Ġut": 2050,
      "Ġ\"#": 2051,
      "used": 2052,
      "Ġoverri": 2053,
      "Ġidea": 2054,
      "Pro": 2055,
      "title": 2056,
      "wn": 2057,
      "redirect": 2058,
      "arts": 2059,
      "owever": 2060,
      "sually": 2061,
      "Ġattachment": 2062,
      "filters": 2063,
      "write": 2064,
      "call": 2065,
      "Ġloader": 2066,
      ".'": 2067,
      "ccess": 2068,
      "Ġfe": 2069,
      "Ġbet": 2070,
      "ĠWindows": 2071,
      "envvar": 2072,
      "SETT": 2073,
      "ĠXHTML": 2074,
      "INGS": 2075,
      "SETTINGS": 2076,
      "alchemy": 2077,
      "Ġwarnings": 2078,
      "Ġpackages": 2079,
      "Ġown": 2080,
      "thing": 2081,
      "tting": 2082,
      "suite": 2083,
      "itional": 2084,
      "Ġchanged": 2085,
      "99": 2086,
      "inue": 2087,
      "orm": 2088,
      "Ġ``<": 2089,
      "Ġlogging": 2090,
      "dist": 2091,
      "/'": 2092,
      "itt": 2093,
      "start": 2094,
      "any": 2095,
      "Ġthrough": 2096,
      "Ġ``'": 2097,
      "Ġlogin": 2098,
      "anger": 2099,
      "Ġotherwise": 2100,
      "wrapp": 2101,
      "Ġdependencies": 2102,
      "body": 2103,
      "Ġways": 2104,
      "Ġdown": 2105,
      "scheme": 2106,
      "angerous": 2107,
      "50": 2108,
      "86": 2109,
      "Session": 2110,
      "len": 2111,
      "of": 2112,
      "Ġ500": 2113,
      "Ġag": 2114,
      "release": 2115,
      "tep": 2116,
      "Ġusername": 2117,
      "Ġjsonify": 2118,
      "dotenv": 2119,
      "Foo": 2120,
      "Su": 2121,
      "by": 2122,
      "flashed": 2123,
      "dep": 2124,
      "cov": 2125,
      "terface": 2126,
      "ĠSee": 2127,
      "max": 2128,
      "Ġencoding": 2129,
      "Ġsetuptools": 2130,
      "arger": 2131,
      "127": 2132,
      "SESSION": 2133,
      "ources": 2134,
      "Ġdebugger": 2135,
      "coder": 2136,
      "ILD": 2137,
      "Ġplace": 2138,
      "gn": 2139,
      "group": 2140,
      "line": 2141,
      "uid": 2142,
      "xy": 2143,
      "Ġhead": 2144,
      "Ġreq": 2145,
      "Ġlocate": 2146,
      "Ġlambda": 2147,
      "cliapp": 2148,
      "'re": 2149,
      "+``": 2150,
      "43": 2151,
      "Server": 2152,
      "obj": 2153,
      "aring": 2154,
      "verage": 2155,
      "Ġfix": 2156,
      "Ġnamed": 2157,
      "subdomain": 2158,
      "ĠĠĠĠĠĠĠĠĠĠĠĠĠĠĠĠĠĠĠĠĠĠĠĠĠĠĠĠĠĠĠĠĠ": 2159,
      "De": 2160,
      "blinker": 2161,
      "mes": 2162,
      "Ġ5": 2163,
      "Ġread": 2164,
      "Ġthread": 2165,
      "css": 2166,
      "Ġsourcecode": 2167,
      "Ġstatement": 2168,
      "DEBUG": 2169,
      "77": 2170,
      "87": 2171,
      "QLA": 2172,
      "ba": 2173,
      "lchemy": 2174,
      "uff": 2175,
      "Ġinside": 2176,
      "ations": 2177,
      "=\"{{": 2178,
      "place": 2179,
      "Ġenabled": 2180,
      "QLAlchemy": 2181,
      "option": 2182,
      "Ġbody": 2183,
      "mplating": 2184,
      "ĠImport": 2185,
      "Ġlocal": 2186,
      "ĠCh": 2187,
      "cessary": 2188,
      "Ġinternal": 2189,
      "/',": 2190,
      "sys": 2191,
      "Ġflag": 2192,
      "Ġelif": 2193,
      "Ġlow": 2194,
      "Ġunder": 2195,
      "ĊĠĠĠĠĠĠĠĠĠĠĠĠĠĠĠĠĠĠĠĠ": 2196,
      "sqlite": 2197,
      "Ġlonger": 2198,
      "pache": 2199,
      "ernal": 2200,
      "encoding": 2201,
      "iter": 2202,
      "Ġanother": 2203,
      "Ġuseful": 2204,
      "routing": 2205,
      "Ġactually": 2206,
      "Ġmeans": 2207,
      "BUILD": 2208,
      "IR": 2209,
      "Un": 2210,
      "].": 2211,
      "arent": 2212,
      "cated": 2213,
      "fault": 2214,
      "phinx": 2215,
      "Ġesca": 2216,
      "transaction": 2217,
      "ginx": 2218,
      "HEAD": 2219,
      "31": 2220,
      "Python": 2221,
      "Response": 2222,
      "To": 2223,
      "Ġtheir": 2224,
      "Ġbetter": 2225,
      "ĠFLASK": 2226,
      "ĠFastCGI": 2227,
      "defaults": 2228,
      "ENT": 2229,
      "Ġinteract": 2230,
      "IF": 2231,
      "cure": 2232,
      "more": 2233,
      "ress": 2234,
      "Ġheader": 2235,
      "encode": 2236,
      "ĠServer": 2237,
      "`_.": 2238,
      "Ġaccepts": 2239,
      ".')": 2240,
      "404": 2241,
      "69": 2242,
      "Config": 2243,
      "ict": 2244,
      "Ġfont": 2245,
      "allow": 2246,
      "Ġrelative": 2247,
      "Ġpost": 2248,
      "apping": 2249,
      "Ġexceptions": 2250,
      "-`": 2251,
      "Build": 2252,
      "xx": 2253,
      "Ġtb": 2254,
      "Ġoption": 2255,
      "Ġresp": 2256,
      "Ġ``/": 2257,
      "uture": 2258,
      "output": 2259,
      "\".": 2260,
      "52": 2261,
      "Here": 2262,
      "released": 2263,
      "ĊĠĠĠĠĠĠĠĠĠĠĠĠĠĠĠĠĠĠĠĠĠĠĠĠĠĠĠĠĠĠĠĠĠĠ": 2264,
      "values": 2265,
      "ĠExtension": 2266,
      "frontend": 2267,
      "''": 2268,
      "dangerous": 2269,
      "input": 2270,
      "ilar": 2271,
      "ptured": 2272,
      "tect": 2273,
      "ĠAPI": 2274,
      "dext": 2275,
      "Info": 2276,
      "Ġhowever": 2277,
      "Ġentries": 2278,
      "76": 2279,
      "Ġtrue": 2280,
      "Ġduring": 2281,
      "ĠTO": 2282,
      "keys": 2283,
      "check": 2284,
      "iled": 2285,
      "Ġformat": 2286,
      "={'": 2287,
      "changed": 2288,
      "PH": 2289,
      "available": 2290,
      "cf": 2291,
      "ne": 2292,
      "nally": 2293,
      "its": 2294,
      "Ġhard": 2295,
      "Ġ{'": 2296,
      "--------------------------------": 2297,
      "order": 2298,
      "ield": 2299,
      "Ġactive": 2300,
      "Ġlooks": 2301,
      "AppException": 2302,
      "Client": 2303,
      "ailed": 2304,
      "io": 2305,
      "mark": 2306,
      "ount": 2307,
      "ader": 2308,
      "endfile": 2309,
      "....": 2310,
      "ĠScript": 2311,
      "cription": 2312,
      "ĠHowever": 2313,
      "Ġ400": 2314,
      "Ġsimp": 2315,
      "Ġdeploy": 2316,
      "Ġvariables": 2317,
      "grade": 2318,
      "93": 2319,
      "IE": 2320,
      "LIC": 2321,
      "ding": 2322,
      "flash": 2323,
      "speci": 2324,
      "Ġaround": 2325,
      "ince": 2326,
      "lib": 2327,
      "timeError": 2328,
      "5000": 2329,
      "OOK": 2330,
      "KeyError": 2331,
      "ĠSQLite": 2332,
      "custom": 2333,
      "irst": 2334,
      "master": 2335,
      "util": 2336,
      "ĠAs": 2337,
      "Ġtemp": 2338,
      "resource": 2339,
      "ween": 2340,
      "auto": 2341,
      "Ġyet": 2342,
      "!=": 2343,
      "82": 2344,
      "tutorial": 2345,
      "um": 2346,
      "Ġfr": 2347,
      "Ġissue": 2348,
      "Ġusually": 2349,
      "Ġstack": 2350,
      "ĠStringIO": 2351,
      "Ġlines": 2352,
      "Ġchar": 2353,
      "Ġmodify": 2354,
      "monition": 2355,
      "ĠNote": 2356,
      "Con": 2357,
      "COOK": 2358,
      "`).": 2359,
      "fp": 2360,
      "over": 2361,
      "Ġrules": 2362,
      "Ġcomple": 2363,
      "ĠPallets": 2364,
      "reenlet": 2365,
      "Ġtypes": 2366,
      "Ġbetween": 2367,
      "COOKIE": 2368,
      "FOO": 2369,
      "ft": 2370,
      "ks": 2371,
      "style": 2372,
      "ingle": 2373,
      "lighttpd": 2374,
      "map": 2375,
      "Ġyourapplication": 2376,
      "proper": 2377,
      "Ġnecessary": 2378,
      "Ġprefix": 2379,
      "Ġrequires": 2380,
      "Ġdesign": 2381,
      "Now": 2382,
      "best": 2383,
      "signal": 2384,
      "tuple": 2385,
      "ero": 2386,
      "Ġfew": 2387,
      "lete": 2388,
      "amework": 2389,
      "orted": 2390,
      "======": 2391,
      "abs": 2392,
      "commit": 2393,
      "Ġcurrently": 2394,
      "Ġdisable": 2395,
      "show": 2396,
      "Ġfinally": 2397,
      "password": 2398,
      "Sub": 2399,
      "We": 2400,
      "vok": 2401,
      "Ġign": 2402,
      "ceback": 2403,
      "extension": 2404,
      "temp": 2405,
      "ably": 2406,
      "solu": 2407,
      "precated": 2408,
      "Ġexplicitly": 2409,
      "Ġsim": 2410,
      "Ġprovides": 2411,
      "INX": 2412,
      "Ġspecial": 2413,
      "iddle": 2414,
      "sqlalchemy": 2415,
      "Ġboth": 2416,
      "ĠImportError": 2417,
      "PHINX": 2418,
      "solute": 2419,
      "51": 2420,
      "`)": 2421,
      "find": 2422,
      "Ġtri": 2423,
      "Ġsafe": 2424,
      "Ġensure": 2425,
      "directory": 2426,
      "Ġexecuted": 2427,
      "preser": 2428,
      "'``": 2429,
      "+@": 2430,
      "61": 2431,
      ":ï¿½": 2432,
      "User": 2433,
      "auth": 2434,
      "ground": 2435,
      "Ġclean": 2436,
      "Ġreload": 2437,
      "ote": 2438,
      "Ġsupported": 2439,
      "Ġcorrect": 2440,
      "artswith": 2441,
      "47": 2442,
      "apt": 2443,
      "factory": 2444,
      "ming": 2445,
      "Ġerr": 2446,
      "ested": 2447,
      "like": 2448,
      "Ġsection": 2449,
      "Ġstored": 2450,
      "rap": 2451,
      "iginal": 2452,
      "85": 2453,
      "ier": 2454,
      "Ġright": 2455,
      "-----------": 2456,
      "Ġ(\"": 2457,
      "ĠFix": 2458,
      "items": 2459,
      "latest": 2460,
      "ĠNotFound": 2461,
      "Loader": 2462,
      "ĠAdded": 2463,
      "+*": 2464,
      "Qu": 2465,
      "eded": 2466,
      "files": 2467,
      "ging": 2468,
      "},": 2469,
      "startswith": 2470,
      "tearing": 2471,
      "Ġstandard": 2472,
      "Ġcannot": 2473,
      "Ġproduction": 2474,
      "Ġrunning": 2475,
      "Ġinternally": 2476,
      "sendfile": 2477,
      "ĠHTTPException": 2478,
      "ATA": 2479,
      "Ġsimilar": 2480,
      "Dict": 2481,
      "ced": 2482,
      "ately": 2483,
      "ool": 2484,
      "ĠInst": 2485,
      "cfg": 2486,
      "98": 2487,
      "jor": 2488,
      "kg": 2489,
      "kip": 2490,
      "ture": 2491,
      "Ġsql": 2492,
      "Ġinvok": 2493,
      "query": 2494,
      "iling": 2495,
      "this": 2496,
      "ĠMake": 2497,
      "Ġbackground": 2498,
      "projects": 2499,
      "BASE": 2500,
      "Content": 2501,
      "++": 2502,
      "bably": 2503,
      "gth": 2504,
      "tb": 2505,
      "ĠException": 2506,
      "Ġsit": 2507,
      "Ġsite": 2508,
      "Ġsingle": 2509,
      "oute": 2510,
      "ances": 2511,
      "mpty": 2512,
      "coming": 2513,
      "Ġmax": 2514,
      "Ġpop": 2515,
      "strong": 2516,
      "Ġcallback": 2517,
      "Ġ}}\">": 2518,
      "Ġrequire": 2519,
      "elery": 2520,
      "SPHINX": 2521,
      "XENV": 2522,
      "cba": 2523,
      "mall": 2524,
      "Ġcur": 2525,
      "ĠSet": 2526,
      "Ġtell": 2527,
      "Ġmain": 2528,
      "Ġadmonition": 2529,
      "Ġlevel": 2530,
      "ĠDefault": 2531,
      "ĠApplication": 2532,
      "ĠTOXENV": 2533,
      "46": 2534,
      "EX": 2535,
      "gle": 2536,
      "ving": 2537,
      "warnings": 2538,
      "Ġtutorial": 2539,
      "member": 2540,
      "``).": 2541,
      "Ġrout": 2542,
      "oogle": 2543,
      "Ġlink": 2544,
      "ĠCon": 2545,
      "Ġ...": 2546,
      "ĠForbidden": 2547,
      "Ġcontents": 2548,
      "ATABASE": 2549,
      "45": 2550,
      "=[": 2551,
      "DIR": 2552,
      "lt": 2553,
      "sid": 2554,
      "tri": 2555,
      "Ġtuple": 2556,
      "Ġfound": 2557,
      "Ġdec": 2558,
      "ilt": 2559,
      "Ġdot": 2560,
      "ished": 2561,
      "Ġ{}": 2562,
      "forms": 2563,
      "Ġversions": 2564,
      "Ġversionchanged": 2565,
      "ĠWhat": 2566,
      "matching": 2567,
      "+`": 2568,
      "05": 2569,
      "uch": 2570,
      "decorator": 2571,
      "Ġinclude": 2572,
      "Ġrefer": 2573,
      "----------": 2574,
      "installed": 2575,
      "ĠValueError": 2576,
      "modified": 2577,
      "dirname": 2578,
      "~~~~~~~~~~~~~~~~": 2579,
      "Ġconnections": 2580,
      "Ġcoding": 2581,
      "newext": 2582,
      "ND": 2583,
      "Ġ10": 2584,
      "Ġnames": 2585,
      "fici": 2586,
      "Ġimports": 2587,
      "errors": 2588,
      "ĠSession": 2589,
      "Ġwhile": 2590,
      "ĠMy": 2591,
      "cape": 2592,
      "Ġneeded": 2593,
      "ĠInternal": 2594,
      "Ġabsolute": 2595,
      "mitted": 2596,
      "patching": 2597,
      "Ġeasy": 2598,
      "Ġproblem": 2599,
      "Ġproperly": 2600,
      "property": 2601,
      "+<": 2602,
      "QU": 2603,
      "ken": 2604,
      "pl": 2605,
      "sg": 2606,
      "warning": 2607,
      "âĢ": 2608,
      "Ġoc": 2609,
      "Ġmsg": 2610,
      "Ġhand": 2611,
      "Ġrunner": 2612,
      "Ġservers": 2613,
      "Ġraised": 2614,
      "cumentation": 2615,
      "Ġmany": 2616,
      "Ġrecommended": 2617,
      "apter": 2618,
      "Do": 2619,
      "TF": 2620,
      "fin": 2621,
      "fcgi": 2622,
      "ves": 2623,
      "Ġ!=": 2624,
      "Ġbug": 2625,
      "loaded": 2626,
      "Ġdevelop": 2627,
      "Ġcreating": 2628,
      "funcs": 2629,
      "ators": 2630,
      "Ġkeyword": 2631,
      "Ġgive": 2632,
      "ĠBecause": 2633,
      "CRET": 2634,
      "55": 2635,
      "RO": 2636,
      "bad": 2637,
      "mk": 2638,
      "next": 2639,
      "pas": 2640,
      "spec": 2641,
      "Ġtake": 2642,
      "eraise": 2643,
      "ĠName": 2644,
      "ĠAl": 2645,
      "ĠBadRequest": 2646,
      "Ġsupports": 2647,
      "Ġ--------------------": 2648,
      "imes": 2649,
      "Ġintro": 2650,
      "Ġfeat": 2651,
      "specifi": 2652,
      "sider": 2653,
      "62": 2654,
      "CE": 2655,
      "record": 2656,
      "Ġite": 2657,
      "lect": 2658,
      "secret": 2659,
      "Ġdeprecated": 2660,
      "Ġmind": 2661,
      "testapp": 2662,
      "Ġbeen": 2663,
      "Ġwithin": 2664,
      "tojson": 2665,
      "ĠDis": 2666,
      "Ġexpect": 2667,
      "ĠResponse": 2668,
      "struct": 2669,
      "ServerError": 2670,
      "-<": 2671,
      "/').": 2672,
      "68": 2673,
      "70": 2674,
      "AG": 2675,
      "Cre": 2676,
      "SQLAlchemy": 2677,
      "hik": 2678,
      "Ġ>>>": 2679,
      "stream": 2680,
      "Ġpl": 2681,
      "Ġpur": 2682,
      "Ġput": 2683,
      "entries": 2684,
      "Ġ''": 2685,
      "aclass": 2686,
      "suhik": 2687,
      "Ġvenv": 2688,
      "Ġupdate": 2689,
      "curity": 2690,
      "ĠExample": 2691,
      "suhiko": 2692,
      "[:": 2693,
      "her": 2694,
      "old": 2695,
      "ati": 2696,
      "last": 2697,
      "Ġinfo": 2698,
      "Ġra": 2699,
      "acker": 2700,
      "Ġ(``": 2701,
      "corded": 2702,
      "plain": 2703,
      "gram": 2704,
      "ĠTemplate": 2705,
      "Ġutf": 2706,
      "'\\": 2707,
      "91": 2708,
      "PRE": 2709,
      "Werkzeug": 2710,
      "dat": 2711,
      "ose": 2712,
      "sor": 2713,
      "source": 2714,
      "Ġ],": 2715,
      "reak": 2716,
      "Ġfails": 2717,
      "Ġinvoke": 2718,
      "Ġsetting": 2719,
      "Ġcoverage": 2720,
      "ĠNow": 2721,
      "Ġsol": 2722,
      "ĠUse": 2723,
      "Ġunicode": 2724,
      "Ġable": 2725,
      "logout": 2726,
      "Ġeasily": 2727,
      "loying": 2728,
      "Ġrecommend": 2729,
      "requires": 2730,
      "ormal": 2731,
      "Ġinteractive": 2732,
      "\").": 2733,
      "BadRequest": 2734,
      "LI": 2735,
      "got": 2736,
      "how": 2737,
      "Ġbool": 2738,
      "Ġ'__": 2739,
      "first": 2740,
      "Ġ``#": 2741,
      "ĠPY": 2742,
      "Ġprobably": 2743,
      "Ġlarger": 2744,
      "Register": 2745,
      "123": 2746,
      "Ġcontrol": 2747,
      "hosted": 2748,
      "commands": 2749,
      "Ġstarted": 2750,
      "Ġrequired": 2751,
      "categ": 2752,
      "cached": 2753,
      "41": 2754,
      "SC": 2755,
      "Ġwon": 2756,
      "Ġmark": 2757,
      "Ġassu": 2758,
      "ĠMa": 2759,
      "Ġsessions": 2760,
      "Ġwrite": 2761,
      "iki": 2762,
      "wrapper": 2763,
      "overri": 2764,
      "Markup": 2765,
      "cd": 2766,
      "push": 2767,
      "anch": 2768,
      "Ġtoo": 2769,
      "Ġreg": 2770,
      "Ġpadd": 2771,
      "Ġdefined": 2772,
      "Ġreturned": 2773,
      "Ġetag": 2774,
      "ĠSub": 2775,
      "Ġaddress": 2776,
      "Ġbrowsers": 2777,
      "Ġproblems": 2778,
      "Ġagain": 2779,
      "abspath": 2780,
      "Ġpadding": 2781,
      "'<": 2782,
      "((": 2783,
      "Dis": 2784,
      "lar": 2785,
      "Ġroute": 2786,
      "yout": 2787,
      "external": 2788,
      "Ġimported": 2789,
      "Ġcookies": 2790,
      "ĠĠĠĠĠĠĠĠĠĠĠĠĠĠĠĠĠĠĠĠĠĠĠ": 2791,
      "Review": 2792,
      "Ġextra": 2793,
      "fixture": 2794,
      "Ġviews": 2795,
      "blueprints": 2796,
      "HTTPException": 2797,
      "contrib": 2798,
      "Ġcodename": 2799,
      "ĠEnviron": 2800,
      "79": 2801,
      "Dep": 2802,
      "email": 2803,
      "only": 2804,
      "Ġcls": 2805,
      "Ġfall": 2806,
      "Ġbit": 2807,
      "Ġbind": 2808,
      "Ġ``.": 2809,
      "item": 2810,
      "uples": 2811,
      "Ġcontinue": 2812,
      "Ġside": 2813,
      "Ġargs": 2814,
      "Ġexecute": 2815,
      "Ġspecified": 2816,
      "ixin": 2817,
      "Ġinvoked": 2818,
      "\"),": 2819,
      "Cook": 2820,
      "DATABASE": 2821,
      "full": 2822,
      "net": 2823,
      "uwsgi": 2824,
      "Ġsignal": 2825,
      "development": 2826,
      "Ġtox": 2827,
      "Ġapps": 2828,
      "Ġreraise": 2829,
      "('.": 2830,
      "Ġbelow": 2831,
      "Ġ(:": 2832,
      "Ġlot": 2833,
      "ĠJust": 2834,
      "permanent": 2835,
      "mitsuhiko": 2836,
      "Ġinterpre": 2837,
      "ĠGener": 2838,
      "ATION": 2839,
      "uctures": 2840,
      "NotFound": 2841,
      "LOAD": 2842,
      "oldext": 2843,
      "Ġseparate": 2844,
      "ethodView": 2845,
      "wards": 2846,
      "LICATION": 2847,
      "Ġoccur": 2848,
      "\"'": 2849,
      "IME": 2850,
      "move": 2851,
      "tra": 2852,
      "Ġ]": 2853,
      "Ġim": 2854,
      "Ġ=========": 2855,
      "Ġthing": 2856,
      "Ġ\"/": 2857,
      "Ġlitt": 2858,
      "Ġconfigured": 2859,
      "Ġendblock": 2860,
      "rendered": 2861,
      "Ġcompati": 2862,
      "Ġlittle": 2863,
      "73": 2864,
      "bility": 2865,
      "ss": 2866,
      "ses": 2867,
      "Ġsignals": 2868,
      "urther": 2869,
      "Ġ'<": 2870,
      "abort": 2871,
      "tox": 2872,
      "codecov": 2873,
      "lower": 2874,
      "Ġgeneral": 2875,
      "handling": 2876,
      "MAX": 2877,
      "Ġapproved": 2878,
      "Ġtrailing": 2879,
      "Ġdistribute": 2880,
      "iddleware": 2881,
      "72": 2882,
      ">`": 2883,
      "UR": 2884,
      "bind": 2885,
      "fail": 2886,
      "future": 2887,
      "has": 2888,
      "ike": 2889,
      "Ġï¿½ï¿½": 2890,
      "Ġavo": 2891,
      "Ġfar": 2892,
      "search": 2893,
      "Ġbreak": 2894,
      "exit": 2895,
      "Ġdeal": 2896,
      "ametri": 2897,
      "Ġstore": 2898,
      "Ġwhy": 2899,
      "Ġteam": 2900,
      "Ġlimit": 2901,
      "Ġunless": 2902,
      "ushed": 2903,
      "Interface": 2904,
      "debugger": 2905,
      "Ġimplementation": 2906,
      "Ġquick": 2907,
      "automatic": 2908,
      "Ġcharact": 2909,
      "Ġavoid": 2910,
      "DO": 2911,
      "Import": 2912,
      "So": 2913,
      "Sendfile": 2914,
      "called": 2915,
      "greenlet": 2916,
      "lls": 2917,
      "que": 2918,
      "ĊĠĠĠĠĠ": 2919,
      "Ġsecure": 2920,
      "ical": 2921,
      "ution": 2922,
      "Ġdomain": 2923,
      "Ġcombin": 2924,
      "ched": 2925,
      "theme": 2926,
      "Ġadding": 2927,
      "ĠView": 2928,
      "Ġdoesn": 2929,
      "Ġinitializ": 2930,
      "ĠUnicode": 2931,
      "ributes": 2932,
      "Ġbuilt": 2933,
      "Ġpresent": 2934,
      "'}": 2935,
      "eas": 2936,
      "Ġfilter": 2937,
      "Ġnice": 2938,
      "Ġhook": 2939,
      "Ġ``--": 2940,
      "Ġexact": 2941,
      "000": 2942,
      "ĠCLI": 2943,
      "ĠMarkup": 2944,
      "thedocs": 2945,
      "Ġoutside": 2946,
      "readthedocs": 2947,
      "TEST": 2948,
      "Ġ--------------": 2949,
      "ĠScriptInfo": 2950,
      "ametrize": 2951,
      "On": 2952,
      "ĠĠĠĠĠĠĠĠĠĠĠĠ": 2953,
      "Ġcert": 2954,
      "deprecation": 2955,
      "Ġinvalid": 2956,
      "ading": 2957,
      "Ġimportant": 2958,
      "Ġonce": 2959,
      "Ġcopy": 2960,
      "Ġclasses": 2961,
      "Ġlanguage": 2962,
      "Ġattributes": 2963,
      "Ġblueprints": 2964,
      "Ġtrans": 2965,
      "APPLICATION": 2966,
      "moved": 2967,
      "Suite": 2968,
      "WSGI": 2969,
      "_(": 2970,
      "Ã¶": 2971,
      "Ġtuples": 2972,
      "Ġsent": 2973,
      "Ġcli": 2974,
      "Ġref": 2975,
      "Ġreal": 2976,
      "vious": 2977,
      "abcd": 2978,
      "Ġtells": 2979,
      "Ġ._": 2980,
      "ialize": 2981,
      "ĠOther": 2982,
      "Ġusage": 2983,
      "Ġgenerate": 2984,
      "escape": 2985,
      "web": 2986,
      "meta": 2987,
      "Ġschema": 2988,
      "redirects": 2989,
      "itsdangerous": 2990,
      "Cookie": 2991,
      "PLA": 2992,
      "cke": 2993,
      "ires": 2994,
      "Ġhe": 2995,
      "Ġauth": 2996,
      "ctools": 2997,
      "Ġpull": 2998,
      "Ġappcontext": 2999,
      "Ġuwsgi": 3000,
      "Ġcomes": 3001,
      "themes": 3002,
      "parametrize": 3003,
      "ariable": 3004,
      "activate": 3005,
      "myapp": 3006,
      "REQU": 3007,
      "Ġeasier": 3008,
      "ava": 3009,
      "endswith": 3010,
      "Ġguide": 3011,
      "started": 3012,
      "Query": 3013,
      "Ġsitu": 3014,
      "06": 3015,
      "ID": 3016,
      "Warning": 3017,
      "fy": 3018,
      "pers": 3019,
      "Ġvi": 3020,
      "Ġjinja": 3021,
      "Ġsmall": 3022,
      "oun": 3023,
      "icro": 3024,
      "ctions": 3025,
      "pyfile": 3026,
      "ĠAn": 3027,
      "Ġpassing": 3028,
      "Ġconnect": 3029,
      "Ġdefaults": 3030,
      "Ġinstallation": 3031,
      "Ġlet": 3032,
      "ternative": 3033,
      "cket": 3034,
      "78": 3035,
      "Bar": 3036,
      "TR": 3037,
      "cw": 3038,
      "case": 3039,
      "fd": 3040,
      "ique": 3041,
      "ple": 3042,
      "pri": 3043,
      "Ġ7": 3044,
      "reload": 3045,
      "Ġsorted": 3046,
      "Ġind": 3047,
      "roken": 3048,
      "Ġ'\"": 3049,
      "testsuite": 3050,
      "ttribute": 3051,
      "ĊĠĊĠĠĠ": 3052,
      "Ġcolor": 3053,
      "Ġ\"%": 3054,
      "ĠPass": 3055,
      "ĠThese": 3056,
      "ublic": 3057,
      "Ġresource": 3058,
      "datetime": 3059,
      "Ġmet": 3060,
      "Ġcaused": 3061,
      "Ġhandled": 3062,
      "Ġpermanent": 3063,
      "ĠRuntimeError": 3064,
      "Builder": 3065,
      "+\"\"\"": 3066,
      ".*": 3067,
      "Ch": 3068,
      "Name": 3069,
      "TH": 3070,
      "ng": 3071,
      "png": 3072,
      "vant": 3073,
      "astr": 3074,
      "Ġclo": 3075,
      "ionError": 3076,
      "ĊĠĊĠĠĠĠĠĠĠĠĠĠĠĠ": 3077,
      "Ġrecord": 3078,
      "Ġdone": 3079,
      "Ġuuid": 3080,
      "rict": 3081,
      "ĠSec": 3082,
      "ĠFirst": 3083,
      "result": 3084,
      "Internal": 3085,
      "Ġinterface": 3086,
      "sidebar": 3087,
      ">`_.": 3088,
      "Ġsimplejson": 3089,
      "Ġlibrary": 3090,
      "box": 3091,
      "Ġinteger": 3092,
      "bytes": 3093,
      "avaScript": 3094,
      "Last": 3095,
      "}-": 3096,
      "replace": 3097,
      "Ġbad": 3098,
      "Ġpatch": 3099,
      "ĠTag": 3100,
      "Ġear": 3101,
      "about": 3102,
      "Ġlocation": 3103,
      "Ġfunctionality": 3104,
      "Ġgetattr": 3105,
      "pythonhosted": 3106,
      "runner": 3107,
      "Ġquery": 3108,
      "content": 3109,
      "ĠLocal": 3110,
      "Ġsqlite": 3111,
      "overrides": 3112,
      "Ġinterpreter": 3113,
      "REQUEST": 3114,
      "-``": 3115,
      "az": 3116,
      "bit": 3117,
      "nginx": 3118,
      "pages": 3119,
      "ĠĠĠĠĠĠĠĠĠĠĠĠĠĠ": 3120,
      "Ġthose": 3121,
      "Ġstor": 3122,
      "Ġloaded": 3123,
      "Ġsuper": 3124,
      "ĠCom": 3125,
      "Ġupgrade": 3126,
      "localdomain": 3127,
      "Ġimpro": 3128,
      "({": 3129,
      ")[": 3130,
      "ROO": 3131,
      "Wh": 3132,
      "cls": 3133,
      "Ġremember": 3134,
      "edit": 3135,
      "Ġsecret": 3136,
      "verter": 3137,
      "char": 3138,
      "ĠThat": 3139,
      "ĠCre": 3140,
      "Ġadmin": 3141,
      "Ġunreleased": 3142,
      "Ġconstruct": 3143,
      "etch": 3144,
      "Ġendif": 3145,
      "Ġhasattr": 3146,
      "msg": 3147,
      "Ġallowed": 3148,
      "builder": 3149,
      "Ġyield": 3150,
      "000000": 3151,
      "ĠNoAppException": 3152,
      "Ġfunctools": 3153,
      "ĠPyPI": 3154,
      "ROOT": 3155,
      "\"))": 3156,
      ">'": 3157,
      "FIL": 3158,
      "GG": 3159,
      "Up": 3160,
      "Version": 3161,
      "ValueError": 3162,
      "lines": 3163,
      "Ġ-----------": 3164,
      "hether": 3165,
      "devel": 3166,
      "Ġpick": 3167,
      "Ġpkg": 3168,
      "Ġmuch": 3169,
      "ĠSE": 3170,
      "routes": 3171,
      "paths": 3172,
      "applications": 3173,
      "Invalid": 3174,
      "Ġcalls": 3175,
      "backend": 3176,
      "manager": 3177,
      "(\"/\")": 3178,
      "MAN": 3179,
      "schema": 3180,
      "Ġpreser": 3181,
      "handled": 3182,
      "Ġoverride": 3183,
      "Ġcomplex": 3184,
      "specific": 3185,
      "gramming": 3186,
      "datastr": 3187,
      "datastructures": 3188,
      "+----------": 3189,
      "94": 3190,
      "></": 3191,
      "Dec": 3192,
      "Ser": 3193,
      "Te": 3194,
      "USER": 3195,
      "YP": 3196,
      "can": 3197,
      "umber": 3198,
      "war": 3199,
      "Ġtitle": 3200,
      "ĠĠĠĠĠĠĠĠĠĠĠĠĠ": 3201,
      "rev": 3202,
      "return": 3203,
      "Ġsy": 3204,
      "Ġmarg": 3205,
      "that": 3206,
      "Ġoriginal": 3207,
      "Ġdoing": 3208,
      "Ġyourself": 3209,
      "actories": 3210,
      "ĠJavaScript": 3211,
      "provi": 3212,
      "Ġabort": 3213,
      "users": 3214,
      "Ġattach": 3215,
      "Ġneeds": 3216,
      "Ġfilesystem": 3217,
      "simplejson": 3218,
      "Ġcaptured": 3219,
      "Ġparameters": 3220,
      "Ġapproach": 3221,
      "ORS": 3222,
      "execute": 3223,
      "Ġeverything": 3224,
      "utils": 3225,
      "easy": 3226,
      "Ġmargin": 3227,
      "+}": 3228,
      "Mixin": 3229,
      "Ġtable": 3230,
      "Ġcou": 3231,
      "stuff": 3232,
      "Ġrecorded": 3233,
      "Ġdele": 3234,
      "Ġnon": 3235,
      "Ġsecurity": 3236,
      "ateg": 3237,
      "ĠType": 3238,
      "Ġfig": 3239,
      "ĠApache": 3240,
      "ĠBuild": 3241,
      "raise": 3242,
      "ĠRule": 3243,
      "Ġparts": 3244,
      "Ġactivate": 3245,
      "========================": 3246,
      "Ġlower": 3247,
      "ĠInstall": 3248,
      "FILE": 3249,
      "ĠTypeError": 3250,
      "+------------": 3251,
      "/<": 3252,
      "/_": 3253,
      "96": 3254,
      ">``": 3255,
      "Link": 3256,
      "hook": 3257,
      "ible": 3258,
      "using": 3259,
      "ini": 3260,
      "atched": 3261,
      "Ġbr": 3262,
      "Ġforce": 3263,
      "testenv": 3264,
      "Ġcol": 3265,
      "Ġev": 3266,
      "Ġconfigure": 3267,
      "support": 3268,
      "strrev": 3269,
      "Ġdebugging": 3270,
      "Ġdepends": 3271,
      "Ġhelpful": 3272,
      "Ġdescription": 3273,
      "````````````````": 3274,
      "witch": 3275,
      "bold": 3276,
      "BUILDDIR": 3277,
      "kscape": 3278,
      "Ġintrodu": 3279,
      "Ġauthor": 3280,
      "'d": 3281,
      "+(": 3282,
      "71": 3283,
      "90": 3284,
      "II": 3285,
      "OUR": 3286,
      "namespace": 3287,
      "ĠÂ": 3288,
      "Ġ//": 3289,
      "Ġcle": 3290,
      "see": 3291,
      "Ġinkscape": 3292,
      "Ġrel": 3293,
      "Ġreport": 3294,
      "Ġremoved": 3295,
      ")::": 3296,
      "Ġissues": 3297,
      "edi": 3298,
      "lowest": 3299,
      "Ġcallable": 3300,
      "derr": 3301,
      "functions": 3302,
      "ĠDefaults": 3303,
      "Deploying": 3304,
      "Ġcouple": 3305,
      "Py": 3306,
      "[::": 3307,
      "_('": 3308,
      "cy": 3309,
      "Ġ~": 3310,
      "Ġsess": 3311,
      "Ġswitch": 3312,
      "Ġ'.": 3313,
      "Ġmove": 3314,
      "Ġrespon": 3315,
      "acro": 3316,
      "helper": 3317,
      "palletsprojects": 3318,
      "Ġspecify": 3319,
      "escaping": 3320,
      "Ġtags": 3321,
      "moz": 3322,
      "where": 3323,
      "Ġhappens": 3324,
      "ĠProject": 3325,
      "Deprecation": 3326,
      "Ġtrigger": 3327,
      "Ġcompatibility": 3328,
      "Ġvia": 3329,
      "Serializer": 3330,
      "Ġevts": 3331,
      "(['": 3332,
      "StringIO": 3333,
      "found": 3334,
      "Ġhello": 3335,
      "Ġsphinx": 3336,
      "templating": 3337,
      "ĠĠĠĠĠĠĠĠĠĠĠĠĠĠĠĠĠ": 3338,
      "Ġproxy": 3339,
      "Ġengine": 3340,
      "ĠUTF": 3341,
      "`_,": 3342,
      "Ġunique": 3343,
      "Ġsize": 3344,
      "ongo": 3345,
      "REM": 3346,
      "submodule": 3347,
      "ĠRequestContext": 3348,
      "Ġmanager": 3349,
      "which": 3350,
      "Ġguess": 3351,
      "Environ": 3352,
      "Ġtempfile": 3353,
      "ĠInternalServerError": 3354,
      "Ġitem": 3355,
      "ĠÂ©": 3356,
      "92": 3357,
      "95": 3358,
      "CON": 3359,
      "flag": 3360,
      "gener": 3361,
      "hrough": 3362,
      "pare": 3363,
      "tc": 3364,
      "Ġquest": 3365,
      "Ġcases": 3366,
      "Ġcateg": 3367,
      "led": 3368,
      "sthrough": 3369,
      "Ġreally": 3370,
      "Ġpe": 3371,
      "Ġdel": 3372,
      "urity": 3373,
      "Ġthough": 3374,
      "Ġ'_": 3375,
      "appname": 3376,
      "Ġ`.": 3377,
      "Ġetc": 3378,
      "Ġgot": 3379,
      "Ġunt": 3380,
      "follow": 3381,
      "Ġhandles": 3382,
      "Ġdispatch": 3383,
      "ĠWeb": 3384,
      "ATH": 3385,
      "Ġscheme": 3386,
      "distribute": 3387,
      "xxx": 3388,
      "Ġfeatures": 3389,
      "'/": 3390,
      "mat": 3391,
      "ru": 3392,
      "uuid": 3393,
      "ĊĠĠĠĠĠĠĠ": 3394,
      "include": 3395,
      "examples": 3396,
      "Ġinclu": 3397,
      "Ġdetect": 3398,
      "ĠFlaskGroup": 3399,
      "'].": 3400,
      "ĠAnd": 3401,
      "ĠFile": 3402,
      "ĠThen": 3403,
      "003": 3404,
      "Ġenough": 3405,
      "Ġ{{": 3406,
      "Ġcontexts": 3407,
      "Inst": 3408,
      "Ġdispla": 3409,
      "Ġstrings": 3410,
      "aving": 3411,
      "ople": 3412,
      "Ġreasons": 3413,
      "position": 3414,
      "TypeError": 3415,
      "passthrough": 3416,
      "ĠAlso": 3417,
      "[::-": 3418,
      "-}": 3419,
      "MPLA": 3420,
      "UID": 3421,
      "eld": 3422,
      "sw": 3423,
      "ten": 3424,
      "Ġhelper": 3425,
      "eri": 3426,
      "invoke": 3427,
      "Ġsign": 3428,
      "Ġdefine": 3429,
      "cookies": 3430,
      "Ġoff": 3431,
      "Ġcome": 3432,
      "Ġemail": 3433,
      "ĠĠĠĠĠĠĠĠĠĠĠĠĠĠĠĠĠĠĠĠĠĠĠĠĠĠĠĠĠĠĠ": 3434,
      "Ġalong": 3435,
      "igr": 3436,
      "TestFlask": 3437,
      "108": 3438,
      "SEND": 3439,
      "Ġ[\"": 3440,
      "Ġ405": 3441,
      "environment": 3442,
      "Ġquite": 3443,
      "ributing": 3444,
      "Ġ-------------": 3445,
      "Ġiteritems": 3446,
      "Ġrouting": 3447,
      "Ġreference": 3448,
      "Ġsolution": 3449,
      "Ġpeople": 3450,
      "MPLATE": 3451,
      "+)": 3452,
      "75": 3453,
      "When": 3454,
      "ear": 3455,
      "mote": 3456,
      "names": 3457,
      "pack": 3458,
      "tforms": 3459,
      "}{": 3460,
      "Ġ?": 3461,
      "Ġaction": 3462,
      "inim": 3463,
      "Ġsp": 3464,
      "decode": 3465,
      "med": 3466,
      "stderr": 3467,
      "Ġinsert": 3468,
      "ilen": 3469,
      "Ġnamespace": 3470,
      "come": 3471,
      "('/?": 3472,
      "ĠBut": 3473,
      "ĠCustom": 3474,
      "ĠMIME": 3475,
      "Ġgetting": 3476,
      "1489": 3477,
      "Ġadds": 3478,
      "Ġaddition": 3479,
      "RequestContext": 3480,
      "layout": 3481,
      "veloper": 3482,
      "creen": 3483,
      "ĠĠĠĠĠĠĠĠĠĠĠĠĠĠĠĠĠĠĠĠĠĠĠĠĠ": 3484,
      "ĠĠĠĠĠĠĠĠĠĠĠĠĠĠĠĠĠĠĠĠĠĠĠĠĠĠĠĠĠĠ": 3485,
      "avicon": 3486,
      "TEMPLATE": 3487,
      "Ġintegr": 3488,
      "preserved": 3489,
      "Ġpurge": 3490,
      "Ġexactly": 3491,
      "Ġcertain": 3492,
      "Ġfigure": 3493,
      "!')": 3494,
      ">``,": 3495,
      "AL": 3496,
      "Make": 3497,
      "ially": 3498,
      "sign": 3499,
      "Ġrow": 3500,
      "internal": 3501,
      "state": 3502,
      "liRun": 3503,
      "arge": 3504,
      "Ġdevel": 3505,
      "Ġnode": 3506,
      "Ġdu": 3507,
      "kee": 3508,
      "utable": 3509,
      "ugin": 3510,
      "chero": 3511,
      "Ġgre": 3512,
      "Ġdiv": 3513,
      "sive": 3514,
      "ĠContext": 3515,
      "cessed": 3516,
      "aves": 3517,
      "ĠWhile": 3518,
      "Ġignore": 3519,
      "extensions": 3520,
      "Registered": 3521,
      "SCII": 3522,
      "liRunner": 3523,
      "cherokee": 3524,
      "Attribute": 3525,
      "Tag": 3526,
      "mapping": 3527,
      "mount": 3528,
      "nel": 3529,
      "Ġ),": 3530,
      "ĠKey": 3531,
      "Ġlast": 3532,
      "Ġsense": 3533,
      "ĊĠĠĠĠĠĠĠĠĠĠĠ": 3534,
      "adapter": 3535,
      "Ġstuff": 3536,
      "ugg": 3537,
      "Ġbytes": 3538,
      "ĠCont": 3539,
      "Ġconsider": 3540,
      "addTest": 3541,
      "Ġnever": 3542,
      "RequestBase": 3543,
      "resources": 3544,
      "Ġactiv": 3545,
      "Ġ2014": 3546,
      "ification": 3547,
      "Ġimplemented": 3548,
      "Ġsystems": 3549,
      "control": 3550,
      "ĠDebug": 3551,
      "Ġ=========================": 3552,
      "callback": 3553,
      "flashes": 3554,
      "Subclass": 3555,
      "EXCE": 3556,
      "ficial": 3557,
      "finished": 3558,
      "ĠTemplateNotFound": 3559,
      "categories": 3560,
      "ĠProjectLink": 3561,
      "03": 3562,
      "53": 3563,
      ">{{": 3564,
      "It": 3565,
      "mode": 3566,
      "rsplit": 3567,
      "will": 3568,
      "Ġtar": 3569,
      "ascript": 3570,
      "second": 3571,
      "Ġbound": 3572,
      "lias": 3573,
      "Ġoper": 3574,
      "Ġmissing": 3575,
      "unicode": 3576,
      "ish": 3577,
      "__':": 3578,
      "Ġbegin": 3579,
      "---------": 3580,
      "Ġstream": 3581,
      "child": 3582,
      "ĠĠĠĠĠĠĠĠĠĠĠĠĠĠĠĠĠĠĠĠ": 3583,
      "Ġattemp": 3584,
      "ĠOS": 3585,
      "logo": 3586,
      "(\"/\",": 3587,
      "MAIN": 3588,
      "Ġtraceback": 3589,
      "present": 3590,
      "Ġcontains": 3591,
      "Ġident": 3592,
      "itten": 3593,
      "Ġraises": 3594,
      "TRAP": 3595,
      "Ġdisplay": 3596,
      "ilenames": 3597,
      "-@": 3598,
      "Add": 3599,
      "MethodView": 3600,
      "Sec": 3601,
      "Step": 3602,
      "based": 3603,
      "null": 3604,
      "oc": 3605,
      "ome": 3606,
      "wiki": 3607,
      "Ġro": 3608,
      "Ġver": 3609,
      "ask": 3610,
      "Ġworld": 3611,
      "Ġwhether": 3612,
      "ites": 3613,
      "mpt": 3614,
      "Ġinput": 3615,
      "Ġpages": 3616,
      "rop": 3617,
      "Ġolder": 3618,
      "Ġminit": 3619,
      "Ġoften": 3620,
      "lying": 3621,
      "Ġele": 3622,
      "intain": 3623,
      "Ġmaintain": 3624,
      "1234": 3625,
      "Ġextends": 3626,
      "Ġregistering": 3627,
      "2935": 3628,
      "Ġnewline": 3629,
      "ĠTestSendfile": 3630,
      "Ġprevent": 3631,
      "Ġ------------------------------------------------": 3632,
      "Ġlatest": 3633,
      "makeSuite": 3634,
      "Ġconverter": 3635,
      "ĠMajor": 3636,
      "Ġcharacters": 3637,
      "Ġconstructor": 3638,
      "Ġminitwit": 3639,
      "*.": 3640,
      "63": 3641,
      "81": 3642,
      "Module": 3643,
      "OPT": 3644,
      "here": 3645,
      "lambda": 3646,
      "wtforms": 3647,
      "Ã¤": 3648,
      "Ġsays": 3649,
      "Ġstep": 3650,
      "delete": 3651,
      "Ġregist": 3652,
      "Ġreloader": 3653,
      "Ġdeci": 3654,
      "enter": 3655,
      "Ġ'.'": 3656,
      "Ġnested": 3657,
      "Ġhig": 3658,
      "Ġhaving": 3659,
      "Ġ`__": 3660,
      "force": 3661,
      "Ġempty": 3662,
      "ĠString": 3663,
      "ĠSphinx": 3664,
      "Ġwho": 3665,
      "Extension": 3666,
      "sock": 3667,
      "Ġ%(": 3668,
      "captured": 3669,
      "Ġcond": 3670,
      "artic": 3671,
      "without": 3672,
      "Ġexpla": 3673,
      "ffect": 3674,
      "inks": 3675,
      "installation": 3676,
      "LOGG": 3677,
      "Programming": 3678,
      "ĠExtensions": 3679,
      "Ġframework": 3680,
      "herit": 3681,
      "ĠSECRET": 3682,
      "DeprecationWarning": 3683,
      "igrate": 3684,
      "OPTS": 3685,
      "LOGGER": 3686,
      "IT": 3687,
      "LT": 3688,
      "PATH": 3689,
      "TFor": 3690,
      "fetch": 3691,
      "pattern": 3692,
      "Ġfurther": 3693,
      "delt": 3694,
      "Ġword": 3695,
      "Ġinject": 3696,
      "lier": 3697,
      "Ġred": 3698,
      "arily": 3699,
      "roved": 3700,
      "ĠSu": 3701,
      "ĠPlease": 3702,
      "Ġlarge": 3703,
      "ĠCelery": 3704,
      "ureCookie": 3705,
      "130": 3706,
      "ĠData": 3707,
      "refer": 3708,
      "Ġhash": 3709,
      "ERR": 3710,
      "spect": 3711,
      "Ġ2015": 3712,
      "monkeypatch": 3713,
      "ĠTestJSON": 3714,
      "Ġinitialize": 3715,
      "8080": 3716,
      "Logger": 3717,
      "Ġbuffer": 3718,
      "IFY": 3719,
      "Web": 3720,
      "SPHINXOPTS": 3721,
      "mkdir": 3722,
      "Creates": 3723,
      "Ġetags": 3724,
      "larative": 3725,
      "Ġuntil": 3726,
      "delta": 3727,
      "67": 3728,
      "Be": 3729,
      "IPT": 3730,
      "Kit": 3731,
      "Par": 3732,
      "Range": 3733,
      "URL": 3734,
      "\\'": 3735,
      "dcba": 3736,
      "gt": 3737,
      "rc": 3738,
      "scri": 3739,
      "vascript": 3740,
      "xml": 3741,
      "Ġ6": 3742,
      "Ġwarn": 3743,
      "ctype": 3744,
      "Ġrepos": 3745,
      "Ġ':": 3746,
      "Ġansw": 3747,
      "ulate": 3748,
      "Ġtestsuite": 3749,
      "ather": 3750,
      "illa": 3751,
      "Ġinstances": 3752,
      "ĠBase": 3753,
      "ĠUsing": 3754,
      "sist": 3755,
      "javascript": 3756,
      "setuptools": 3757,
      "imports": 3758,
      "timeout": 3759,
      "eaders": 3760,
      "avig": 3761,
      "ĠEither": 3762,
      "subclass": 3763,
      "mbers": 3764,
      "Ġslashes": 3765,
      "CRIPT": 3766,
      "Success": 3767,
      "preserve": 3768,
      "Ġregular": 3769,
      "Ġcombination": 3770,
      "TESTING": 3771,
      "ĠOtherwise": 3772,
      "charset": 3773,
      "83": 3774,
      "ax": 3775,
      "api": 3776,
      "tal": 3777,
      "zip": 3778,
      "inter": 3779,
      "ash": 3780,
      "Ġsince": 3781,
      "Ġscreen": 3782,
      "Ġreplace": 3783,
      "Ġpush": 3784,
      "ttings": 3785,
      "pypy": 3786,
      "Ġones": 3787,
      "ĠIm": 3788,
      "agent": 3789,
      "ĠThey": 3790,
      "ĠMongo": 3791,
      "Ġchan": 3792,
      "Ġexperi": 3793,
      "Ġkeys": 3794,
      "logged": 3795,
      "Ġ}}</": 3796,
      "Ġbackend": 3797,
      "Ġdepending": 3798,
      "JSONIFY": 3799,
      "description": 3800,
      "Ġimplements": 3801,
      "grading": 3802,
      "ucture": 3803,
      "Ġexisting": 3804,
      "ĠBlueprintTestCase": 3805,
      "Ġfullname": 3806,
      "Encoder": 3807,
      "viously": 3808,
      "cwarn": 3809,
      "-(": 3810,
      "AN": 3811,
      "Like": 3812,
      "dt": 3813,
      "fe": 3814,
      "fl": 3815,
      "Ġtak": 3816,
      "inu": 3817,
      "req": 3818,
      "Ġskip": 3819,
      "Ġtheme": 3820,
      "Ġincoming": 3821,
      "Ġnginx": 3822,
      "Ġselect": 3823,
      "coded": 3824,
      "aces": 3825,
      "ntax": 3826,
      "Ġcommit": 3827,
      "Ġconsist": 3828,
      "ĠLanguage": 3829,
      "Ġlists": 3830,
      "Ġprepare": 3831,
      "dden": 3832,
      "Ġrendered": 3833,
      "Ġgeneric": 3834,
      "Ġhelpers": 3835,
      "Ġwrong": 3836,
      "NoAppException": 3837,
      "=======": 3838,
      "Reviewed": 3839,
      "Ġinitializes": 3840,
      "persp": 3841,
      "warded": 3842,
      "provide": 3843,
      "Ġactivated": 3844,
      ");": 3845,
      "ULT": 3846,
      "bases": 3847,
      "have": 3848,
      "ipp": 3849,
      "lang": 3850,
      "part": 3851,
      "parent": 3852,
      "ration": 3853,
      "skip": 3854,
      "Ġlicense": 3855,
      "Ġ>=": 3856,
      "engine": 3857,
      "Ġfailed": 3858,
      "itory": 3859,
      "itwit": 3860,
      "Ġ=>": 3861,
      "``)": 3862,
      "Ġdecor": 3863,
      "('{{": 3864,
      "color": 3865,
      "Ġ``|": 3866,
      "Ġreturning": 3867,
      "lders": 3868,
      "Ġemit": 3869,
      "ĠĠĠĠĠĠĠĠĠĠĠĠĠĠĠĠĠĠĠĠĠ": 3870,
      "ĠĠĠĠĠĠĠĠĠĠĠĠĠĠĠĠĠĠĠĠĠĠ": 3871,
      "ray": 3872,
      "minitwit": 3873,
      "Ġparsing": 3874,
      "Ġsubmit": 3875,
      "Ġsubmitted": 3876,
      "ized": 3877,
      "Ġdisc": 3878,
      "ĠTests": 3879,
      "ĠReleased": 3880,
      "Ġopening": 3881,
      "Ġcause": 3882,
      "Ġserializer": 3883,
      "Ġpoints": 3884,
      "Ġseconds": 3885,
      "Ġthreading": 3886,
      "Ġescape": 3887,
      "IFEST": 3888,
      "Ġtempor": 3889,
      "SPHINXBUILD": 3890,
      "inux": 3891,
      "%/": 3892,
      "CH": 3893,
      "blink": 3894,
      "dl": 3895,
      "empty": 3896,
      "lan": 3897,
      "normal": 3898,
      "pa": 3899,
      "wrap": 3900,
      "}/": 3901,
      "Ġ60": 3902,
      "alt": 3903,
      "ities": 3904,
      "Ġpri": 3905,
      "Ġprefer": 3906,
      "===": 3907,
      "Ġmacro": 3908,
      "Ġdrop": 3909,
      "Ġflaskext": 3910,
      "ically": 3911,
      "ĠFlaskr": 3912,
      "ĠFlaskTestCase": 3913,
      "aging": 3914,
      "Ġinstru": 3915,
      "Ġenables": 3916,
      "Ġmajor": 3917,
      "anti": 3918,
      "etime": 3919,
      "ĠIntern": 3920,
      "2282": 3921,
      "~~~~~~~~~~~~": 3922,
      "fully": 3923,
      "cursor": 3924,
      "ĠLock": 3925,
      "reamHandler": 3926,
      "Ġzip": 3927,
      "........": 3928,
      "ftware": 3929,
      "Ġignored": 3930,
      "ĠEnvironment": 3931,
      "ĠGeneric": 3932,
      "Ġdeleted": 3933,
      "Ġrepository": 3934,
      "Ġchannel": 3935,
      "-)": 3936,
      "->>>": 3937,
      "HÃ¤": 3938,
      "LER": 3939,
      "Path": 3940,
      "SCRIPT": 3941,
      "UUID": 3942,
      "aa": 3943,
      "cc": 3944,
      "df": 3945,
      "fc": 3946,
      "google": 3947,
      "rb": 3948,
      "Ġ&": 3949,
      "interface": 3950,
      "developer": 3951,
      "stand": 3952,
      "Ġborder": 3953,
      "Ġnone": 3954,
      "()[": 3955,
      "()``": 3956,
      "Ġ\"{": 3957,
      "ĠNew": 3958,
      "Ġsuccess": 3959,
      "Ġglobal": 3960,
      "Return": 3961,
      "__))": 3962,
      "Exp": 3963,
      "Ġshort": 3964,
      "parse": 3965,
      "Ġ},": 3966,
      "Ġupload": 3967,
      "2957": 3968,
      "Ġvarious": 3969,
      "Ġpaths": 3970,
      "tyle": 3971,
      "Ġkind": 3972,
      "Ġlatex": 3973,
      "ĠXML": 3974,
      "Ġbuilder": 3975,
      "ĠAdmin": 3976,
      "processors": 3977,
      "Ġpasswords": 3978,
      "Proxy": 3979,
      "plugin": 3980,
      "ĠDispatching": 3981,
      "ĠSubdomain": 3982,
      "Disposition": 3983,
      "DOMAIN": 3984,
      "Char": 3985,
      "vantage": 3986,
      "Ġcategory": 3987,
      "Ġexperience": 3988,
      "'\"": 3989,
      ">`.": 3990,
      "Cache": 3991,
      "FA": 3992,
      "GU": 3993,
      "Globals": 3994,
      "PA": 3995,
      "RIN": 3996,
      "eager": 3997,
      "rld": 3998,
      "respon": 3999,
      "silent": 4000,
      "variable": 4001,
      "rel": 4002,
      "Ġclose": 4003,
      "lets": 4004,
      "Ġinspect": 4005,
      "ĊĠĠĠĠĠĠĠĠĠ": 4006,
      "ĊĠĠĠĠĠĠĠĠĠĠĠĠĠĠĠĠĠĠĠĠĠĠĠĠĠĠĠĠĠĠĠĠ": 4007,
      "Ġpushed": 4008,
      "Ġmicro": 4009,
      "Ġnavig": 4010,
      "adow": 4011,
      "vised": 4012,
      "ĠWÃ¶": 4013,
      "Testing": 4014,
      "Ġgreen": 4015,
      "Ġtear": 4016,
      "Ġmail": 4017,
      "ĠCode": 4018,
      "Ġunavailable": 4019,
      "something": 4020,
      "TTYP": 4021,
      "Ġattack": 4022,
      "LAR": 4023,
      "ĠjQuery": 4024,
      "REGU": 4025,
      "Ġlogout": 4026,
      "Ġresults": 4027,
      "Ġ}}')": 4028,
      "Ġkick": 4029,
      "cursive": 4030,
      "ribution": 4031,
      "/>`_.": 4032,
      "Ġhappened": 4033,
      "Ġconvert": 4034,
      "Ġsubclasses": 4035,
      "wrappers": 4036,
      "Ġlowest": 4037,
      "Ġdeployment": 4038,
      "Ġcomplete": 4039,
      "ĠFixed": 4040,
      "PRETTYP": 4041,
      "ĠCreating": 4042,
      "ĠBuildError": 4043,
      "matter": 4044,
      "articles": 4045,
      "HÃ¤llo": 4046,
      "RINT": 4047,
      "ĠWÃ¶rld": 4048,
      "Ġgreenlets": 4049,
      "REGULAR": 4050,
      "PRETTYPRINT": 4051,
      "+|": 4052,
      "200": 4053,
      "As": 4054,
      "Field": 4055,
      "WOR": 4056,
      "YOUR": 4057,
      "fab": 4058,
      "oh": 4059,
      "sess": 4060,
      "ors": 4061,
      "pper": 4062,
      "Ġmiddleware": 4063,
      "Ġrest": 4064,
      "Ġnumber": 4065,
      "('_": 4066,
      "sertionError": 4067,
      "oder": 4068,
      "col": 4069,
      "tty": 4070,
      "ĠFlaskClient": 4071,
      "ĠSe": 4072,
      "amily": 4073,
      "ĠCheck": 4074,
      "Ġadvantage": 4075,
      "Ġshown": 4076,
      "Ġsubmodule": 4077,
      "Ġresources": 4078,
      "Ġloads": 4079,
      "Ġchecks": 4080,
      "JSONSerializer": 4081,
      "gedJSONSerializer": 4082,
      "SSWOR": 4083,
      "processing": 4084,
      "ĠBlueprints": 4085,
      "403": 4086,
      "Ġmyapp": 4087,
      "Ġitsdangerous": 4088,
      "ĠDocumentation": 4089,
      "transactions": 4090,
      "AGE": 4091,
      "statement": 4092,
      "seconds": 4093,
      "ĠSupport": 4094,
      "SSWORD": 4095,
      "/':": 4096,
      "100": 4097,
      ">\"": 4098,
      "BAD": 4099,
      "First": 4100,
      "ainst": 4101,
      "broken": 4102,
      "ped": 4103,
      "rfc": 4104,
      "slash": 4105,
      "Ġ>": 4106,
      "inary": 4107,
      "reloader": 4108,
      "Ġfalse": 4109,
      "Ġfilenames": 4110,
      "iting": 4111,
      "Ġrece": 4112,
      "ention": 4113,
      "Ġmo": 4114,
      "Ġmigrate": 4115,
      "Ġrather": 4116,
      "Ġnormal": 4117,
      "Ġsearch": 4118,
      "../": 4119,
      "ĠImplement": 4120,
      "Ġprofile": 4121,
      "Ġgroup": 4122,
      "Ġsocket": 4123,
      "Ġmade": 4124,
      "six": 4125,
      "ĠClick": 4126,
      "122": 4127,
      "ĠMethod": 4128,
      "try": 4129,
      "aching": 4130,
      "argspec": 4131,
      "Ġmodified": 4132,
      "params": 4133,
      "Ġwebserver": 4134,
      "ĠUnreleased": 4135,
      "+--------------------": 4136,
      "RuntimeError": 4137,
      "ĠModuleTestCase": 4138,
      "ĠStart": 4139,
      "Ġimplicitly": 4140,
      "SessionInterface": 4141,
      "Ġagainst": 4142,
      "++++": 4143,
      "Ġimage": 4144,
      "+----------+----------": 4145,
      "Ġsyntax": 4146,
      "mozilla": 4147,
      "Ġdecided": 4148,
      "Ġwords": 4149,
      "ERRORS": 4150,
      "ĠMongoKit": 4151,
      "([": 4152,
      "+>>>": 4153,
      ".\"": 4154,
      "/\"": 4155,
      "/\",": 4156,
      "EP": 4157,
      "FF": 4158,
      "FO": 4159,
      "Safe": 4160,
      "cert": 4161,
      "emp": 4162,
      "false": 4163,
      "jquery": 4164,
      "rno": 4165,
      "tar": 4166,
      "Ġedit": 4167,
      "secure": 4168,
      "meh": 4169,
      "stemp": 4170,
      "ansp": 4171,
      "Ġ'{": 4172,
      "aced": 4173,
      "Ġnote": 4174,
      "Ġdoc": 4175,
      "ĠFunction": 4176,
      "ĠFound": 4177,
      "Ġinstanti": 4178,
      "Ġla": 4179,
      "imetypes": 4180,
      "101": 4181,
      "102": 4182,
      "105": 4183,
      "Errno": 4184,
      "Ġ16": 4185,
      "SECRET": 4186,
      "Ġexternal": 4187,
      "etag": 4188,
      "159": 4189,
      "sessions": 4190,
      "ĠOpen": 4191,
      "ĠOPTIONS": 4192,
      "itionally": 4193,
      "Ġlooking": 4194,
      "Ġlisten": 4195,
      "shadow": 4196,
      "ĠGoogle": 4197,
      "DEFA": 4198,
      "framework": 4199,
      "ĠUnable": 4200,
      "ScriptInfo": 4201,
      "Ġproperty": 4202,
      "Ġautofunction": 4203,
      "Ġfeed": 4204,
      "arentException": 4205,
      "Ġhandy": 4206,
      "mkstemp": 4207,
      "('.',": 4208,
      "binding": 4209,
      "Ġindent": 4210,
      "Ġclosing": 4211,
      "Ġcolle": 4212,
      "Ġdumps": 4213,
      "TForms": 4214,
      "DEFAULT": 4215,
      "-\"\"\"": 4216,
      "Auth": 4217,
      "AUT": 4218,
      "SQL": 4219,
      "Tools": 4220,
      "US": 4221,
      "tools": 4222,
      "Ġ()": 4223,
      "Ġinfer": 4224,
      "lid": 4225,
      "Ġrele": 4226,
      "Ġremove": 4227,
      "unately": 4228,
      "ortunately": 4229,
      "andom": 4230,
      "Ġsupp": 4231,
      "ĠWith": 4232,
      "ident": 4233,
      "defined": 4234,
      "Ġsolid": 4235,
      "documentation": 4236,
      "Ġ{})": 4237,
      "--------------------": 4238,
      "some": 4239,
      "Ġcreates": 4240,
      "ĠDE": 4241,
      "Ġstructure": 4242,
      "ildException": 4243,
      "Ġpypy": 4244,
      "Ġparsed": 4245,
      "myapplication": 4246,
      "dump": 4247,
      "Ġ2011": 4248,
      "Ġlogic": 4249,
      "scripts": 4250,
      "submit": 4251,
      "ialized": 4252,
      "Ġtrick": 4253,
      "\"])": 4254,
      "lify": 4255,
      "BAR": 4256,
      "depth": 4257,
      "deploy": 4258,
      "ĠAPIs": 4259,
      "need": 4260,
      "Ġroutes": 4261,
      "Ġbuiltin": 4262,
      "Ġexplain": 4263,
      ")):": 4264,
      "+[": 4265,
      ".)": 4266,
      "AS": 4267,
      "FastCGI": 4268,
      "PUT": 4269,
      "Twit": 4270,
      "dual": 4271,
      "failed": 4272,
      "gu": 4273,
      "larger": 4274,
      "now": 4275,
      "pag": 4276,
      "sentry": 4277,
      "times": 4278,
      "}'.": 4279,
      "Ġ))": 4280,
      "inally": 4281,
      "original": 4282,
      "Ġcelery": 4283,
      "Ġfine": 4284,
      "Ġwarning": 4285,
      "Ġbest": 4286,
      "Ġindi": 4287,
      "lish": 4288,
      "Ġrepresent": 4289,
      "Ġrecwarn": 4290,
      "Ġminim": 4291,
      "vidual": 4292,
      "Ġ``(": 4293,
      "Ġofficial": 4294,
      ":`/": 4295,
      "flaskgroup": 4296,
      "Ġ`/": 4297,
      "Ġstyle": 4298,
      "Ġ(%": 4299,
      "ĠIP": 4300,
      "database": 4301,
      "ĠSince": 4302,
      "nders": 4303,
      "agine": 4304,
      "Ġfield": 4305,
      "upgrade": 4306,
      "Ġunhandled": 4307,
      "Ġshows": 4308,
      "Ġruns": 4309,
      "ĠLet": 4310,
      "132": 4311,
      "ĠRed": 4312,
      "Ġarbit": 4313,
      "sender": 4314,
      "Ġloading": 4315,
      "ĠEach": 4316,
      "should": 4317,
      "Ġgenerated": 4318,
      "Ġmean": 4319,
      "expires": 4320,
      "Ġwrapp": 4321,
      "Ġwebsite": 4322,
      "ĊĠĠĠĠĠĠĠĠĠĠĠĠĠĠĠĠĠĠĠĠĠĠĠĠĠĠ": 4323,
      "ĠOnce": 4324,
      "Ġ=========================================": 4325,
      "Ġfunc": 4326,
      "Ġoverridden": 4327,
      "Ġdownload": 4328,
      "ĠForbiddenSubclass": 4329,
      "Ġsituation": 4330,
      "Ġearlier": 4331,
      "Ġimprove": 4332,
      "iniTwit": 4333,
      "Ġbranch": 4334,
      "Ġwhole": 4335,
      "flup": 4336,
      "Ġinstructions": 4337,
      "ĠInternet": 4338,
      "Ġindividual": 4339,
      "110": 4340,
      "=/": 4341,
      ">',": 4342,
      "Data": 4343,
      "Le": 4344,
      "UFF": 4345,
      "Your": 4346,
      "ait": 4347,
      "cm": 4348,
      "cle": 4349,
      "dit": 4350,
      "ffici": 4351,
      "ire": 4352,
      "nam": 4353,
      "nipp": 4354,
      "ric": 4355,
      "rary": 4356,
      "tree": 4357,
      "zz": 4358,
      "Ġ~~~~~~~~~~~~~~~~": 4359,
      "Ġblinker": 4360,
      "Ġrepl": 4361,
      "unity": 4362,
      "cel": 4363,
      "pyc": 4364,
      "ĠĠĠĠĠĠĠĠĠĠĠĠĠĠĠĠĠĠ": 4365,
      "ĠSQLAlchemy": 4366,
      "'](": 4367,
      "ĠAllow": 4368,
      "popped": 4369,
      "ĠMod": 4370,
      "soci": 4371,
      "ĊĠĠĠĠĠĠĠĠĠĠĠĠĠĠĠĠĠĠĠĠĠ": 4372,
      "144": 4373,
      "157": 4374,
      "STUFF": 4375,
      "231": 4376,
      "Ġsubscri": 4377,
      "RELOAD": 4378,
      "There": 4379,
      "Ġpretty": 4380,
      "API": 4381,
      "shot": 4382,
      "Ġmem": 4383,
      "ĠGit": 4384,
      "eee": 4385,
      "irc": 4386,
      "Ġmanage": 4387,
      "ĠOne": 4388,
      "Ġdependency": 4389,
      "Ġseparators": 4390,
      "ĠChange": 4391,
      "Ġescaping": 4392,
      "Connection": 4393,
      "Ġcleanup": 4394,
      "Ġpopular": 4395,
      "Ġcursor": 4396,
      "Ġoccurs": 4397,
      "Importer": 4398,
      "ĠInstalling": 4399,
      "Ġrelated": 4400,
      "TEMPLATES": 4401,
      "EXCEPTIONS": 4402,
      "Charm": 4403,
      "AUTO": 4404,
      "Ġarbitrary": 4405,
      "fficient": 4406,
      ")``": 4407,
      "112": 4408,
      "84": 4409,
      "An": 4410,
      "Allow": 4411,
      "ATE": 4412,
      "By": 4413,
      "FC": 4414,
      "File": 4415,
      "Set": 4416,
      "With": 4417,
      "ball": 4418,
      "flow": 4419,
      "family": 4420,
      "lone": 4421,
      "padded": 4422,
      "shed": 4423,
      "wes": 4424,
      "Ġ9": 4425,
      "Ġ12": 4426,
      "Ġvirtual": 4427,
      "medi": 4428,
      "Ġboolean": 4429,
      "exist": 4430,
      "lished": 4431,
      "``::": 4432,
      "Ġdelete": 4433,
      "serving": 4434,
      "Ġmimetypes": 4435,
      "Ġ+=": 4436,
      "extra": 4437,
      "coverage": 4438,
      "ulti": 4439,
      "ĠSendfile": 4440,
      "common": 4441,
      "ĠCo": 4442,
      "125": 4443,
      "='<": 4444,
      "cii": 4445,
      "uses": 4446,
      "118": 4447,
      "ĊĠĠĠĠĠĠĠĠĠĠĠĠĠĠĠĠĠĠĠĠĠĠĠĠĠĠĠ": 4448,
      "Ġchain": 4449,
      "133": 4450,
      "correct": 4451,
      "locals": 4452,
      "ĠĠĠĠĠĠĠĠĠĠĠĠĠĠĠĠĠĠĠĠĠĠĠĠĠĠĠĠ": 4453,
      "Ġbehaves": 4454,
      "compile": 4455,
      "company": 4456,
      "Ġcompany": 4457,
      "ĠLogging": 4458,
      "Ġperform": 4459,
      "ĠTemplating": 4460,
      "Ġtyp": 4461,
      "Ġdesigned": 4462,
      "ĠSessionInterface": 4463,
      "Ġoccurred": 4464,
      "Ġintroduce": 4465,
      "Ġguessing": 4466,
      "ĠDEBUG": 4467,
      "celery": 4468,
      "wesome": 4469,
      "ĠSendfileTestCase": 4470,
      "!',": 4471,
      "'})": 4472,
      "/__": 4473,
      "ASCII": 4474,
      "DR": 4475,
      "Sign": 4476,
      "ldext": 4477,
      "most": 4478,
      "vp": 4479,
      "Ġ~~~~~~~~~~~~": 4480,
      "inet": 4481,
      "Ġcour": 4482,
      "develop": 4483,
      "Ġwide": 4484,
      "ants": 4485,
      "except": 4486,
      "Ġoldext": 4487,
      "getattr": 4488,
      "Ġegg": 4489,
      "ĠWork": 4490,
      "ĠPre": 4491,
      "uper": 4492,
      "104": 4493,
      "Ġ*.": 4494,
      "113": 4495,
      "Ġuploaded": 4496,
      "pecial": 4497,
      "Ġpopped": 4498,
      "Ġaccessed": 4499,
      "Ġsender": 4500,
      "Ġ------------------": 4501,
      "ickstart": 4502,
      "Ġhelps": 4503,
      "Ġdescri": 4504,
      "Ġlength": 4505,
      "ĠSome": 4506,
      "Ġexecutable": 4507,
      "ĠOnly": 4508,
      "disconnect": 4509,
      "ĠRunning": 4510,
      "length": 4511,
      "Ġdisabled": 4512,
      "Ġdevelopers": 4513,
      "[:]": 4514,
      "ĠEnvironBuilder": 4515,
      "Ġ'\"\\\\": 4516,
      "Decoder": 4517,
      "EnvironBuilder": 4518,
      "uggest": 4519,
      "Ġrows": 4520,
      "Ġhigh": 4521,
      "%(": 4522,
      "+\\": 4523,
      "OTE": 4524,
      "One": 4525,
      "OAuth": 4526,
      "blog": 4527,
      "basic": 4528,
      "pushed": 4529,
      "save": 4530,
      "yy": 4531,
      "insert": 4532,
      "Ġcd": 4533,
      "Ġfav": 4534,
      "Ġfuture": 4535,
      "align": 4536,
      "ctree": 4537,
      "Ġtoctree": 4538,
      "ross": 4539,
      "ilities": 4540,
      "Ġrandom": 4541,
      "Ġassoci": 4542,
      "odoc": 4543,
      "Ġforwarded": 4544,
      "Ġgithub": 4545,
      "Ġlighttpd": 4546,
      "__),": 4547,
      "ĠUser": 4548,
      "129": 4549,
      "Ġunit": 4550,
      "usually": 4551,
      "ourage": 4552,
      "setitem": 4553,
      "ĠLi": 4554,
      "Ġexpires": 4555,
      "167": 4556,
      "Ġadditional": 4557,
      "Ġ30": 4558,
      "ials": 4559,
      "193": 4560,
      "Ġattache": 4561,
      "Ġconfigurations": 4562,
      "Ġsomewhere": 4563,
      "2017": 4564,
      "latex": 4565,
      "ADDR": 4566,
      "ĠGo": 4567,
      "Formatter": 4568,
      "Ġredirects": 4569,
      "Ġwritten": 4570,
      "Ġexists": 4571,
      "Ġplain": 4572,
      "Ġmatching": 4573,
      "ĠEngine": 4574,
      "require": 4575,
      "maxdepth": 4576,
      "Ġsimply": 4577,
      "ĠAssertionError": 4578,
      "Ġdotenv": 4579,
      "Ġfilters": 4580,
      "Ġsituations": 4581,
      "ounter": 4582,
      "What": 4583,
      "REMOTE": 4584,
      "ifications": 4585,
      "heritance": 4586,
      "Ġanswer": 4587,
      "Ġtakes": 4588,
      "ĠFunctions": 4589,
      "mediately": 4590,
      "ĠTemplatingTestCase": 4591,
      "Ġattached": 4592,
      "'ll": 4593,
      "(?": 4594,
      "+================": 4595,
      "+{%": 4596,
      "-{%": 4597,
      ">``.": 4598,
      "PRO": 4599,
      "RC": 4600,
      "Sh": 4601,
      "World": 4602,
      "count": 4603,
      "dated": 4604,
      "ets": 4605,
      "factories": 4606,
      "favicon": 4607,
      "ipped": 4608,
      "oot": 4609,
      "pkg": 4610,
      "orn": 4611,
      "Ġtool": 4612,
      "Ġrevised": 4613,
      "Ġpublic": 4614,
      "Ġappli": 4615,
      "Ġ',": 4616,
      "thread": 4617,
      "ĠuWSGI": 4618,
      "access": 4619,
      "ective": 4620,
      "uto": 4621,
      "mpler": 4622,
      "Ġstarts": 4623,
      "Ġeager": 4624,
      "ugfix": 4625,
      "ĠIs": 4626,
      "ĠIRC": 4627,
      "['_": 4628,
      "ĠAll": 4629,
      "pose": 4630,
      "Ġsoon": 4631,
      "ĠCliRunner": 4632,
      "document": 4633,
      "124": 4634,
      "raps": 4635,
      "Ġcreation": 4636,
      "163": 4637,
      "168": 4638,
      "converter": 4639,
      "Index": 4640,
      "194": 4641,
      "ĠĠĠĠĠĠĠĠĠĠĠĠĠĠĠĠĠĠĠĠĠĠĠĠĠĠĠĠĠ": 4642,
      "3333": 4643,
      "Ġenvironments": 4644,
      "Ġthemes": 4645,
      "Ġsetups": 4646,
      "expect": 4647,
      "Forbidden": 4648,
      "Ġtrack": 4649,
      "Ġ[]).": 4650,
      "Ġpartic": 4651,
      "Keep": 4652,
      "Ġcodes": 4653,
      "sphinxsidebar": 4654,
      "Ġappropri": 4655,
      "ORT": 4656,
      "Ġflashes": 4657,
      "UTF": 4658,
      "Ġoptional": 4659,
      "Ġsimplify": 4660,
      "ĠInstead": 4661,
      "Ġdecla": 4662,
      "Ġassumes": 4663,
      "ternatively": 4664,
      "ĠPassword": 4665,
      "ĠSecurity": 4666,
      "}-{": 4667,
      "ĠTaggedJSONSerializer": 4668,
      "Ġpreserved": 4669,
      "USERNAME": 4670,
      "Ġclear": 4671,
      "PyPI": 4672,
      "Ġregistration": 4673,
      "PASSWORD": 4674,
      "ohn": 4675,
      "Ġfeedback": 4676,
      "!\"": 4677,
      "+````````````````": 4678,
      "/*": 4679,
      ":\\": 4680,
      ";'": 4681,
      "`:": 4682,
      "event": 4683,
      "go": 4684,
      "ient": 4685,
      "imple": 4686,
      "ka": 4687,
      "king": 4688,
      "mal": 4689,
      "rules": 4690,
      "sult": 4691,
      "vod": 4692,
      "}.": 4693,
      "Ġ8": 4694,
      "Ġter": 4695,
      "Ġaw": 4696,
      "ino": 4697,
      "Ġcc": 4698,
      "Ġfree": 4699,
      "deps": 4700,
      "Ġwiki": 4701,
      "lifi": 4702,
      "Ġpow": 4703,
      "gether": 4704,
      "serializer": 4705,
      "Ġsep": 4706,
      "ĠTry": 4707,
      "Ġforward": 4708,
      "icense": 4709,
      "into": 4710,
      "Ġ(**": 4711,
      "ĠIO": 4712,
      "ĠSentry": 4713,
      "Released": 4714,
      "raw": 4715,
      "raight": 4716,
      "1421": 4717,
      "Ġconf": 4718,
      "addr": 4719,
      "ffff": 4720,
      "Ġworked": 4721,
      "199": 4722,
      "Ġdeps": 4723,
      "ared": 4724,
      "Ġtimedelta": 4725,
      "Ġgives": 4726,
      "Ġstatements": 4727,
      "ĊĠĠĠĠĠĠĠĠĠĠĠĠĠĠĠĠĠĠĠĠĠĠĠĠĠ": 4728,
      "Scripts": 4729,
      "ĠChildException": 4730,
      "Ġsimplifi": 4731,
      "Ġfrontend": 4732,
      "Ġsafely": 4733,
      "Ġtools": 4734,
      "searchbox": 4735,
      "Ġguidelines": 4736,
      "edirect": 4737,
      "Ġdetected": 4738,
      "Install": 4739,
      "Ġconditional": 4740,
      "patterns": 4741,
      "Expected": 4742,
      "sixpath": 4743,
      "Level": 4744,
      "vodka": 4745,
      "AND": 4746,
      "GTH": 4747,
      "Hub": 4748,
      "HAND": 4749,
      "LEN": 4750,
      "LSPHINXOPTS": 4751,
      "NO": 4752,
      "OLIC": 4753,
      "POLIC": 4754,
      "Rule": 4755,
      "See": 4756,
      "Top": 4757,
      "TENT": 4758,
      "WTF": 4759,
      "gz": 4760,
      "gments": 4761,
      "hr": 4762,
      "sorted": 4763,
      "super": 4764,
      "orage": 4765,
      "ensure": 4766,
      "ouch": 4767,
      "Ġbas": 4768,
      "Ġpack": 4769,
      "look": 4770,
      "Ġapply": 4771,
      "quickstart": 4772,
      "Ġnull": 4773,
      "unregistered": 4774,
      "('<": 4775,
      "adata": 4776,
      "ully": 4777,
      "valent": 4778,
      "Ġequi": 4779,
      "']('": 4780,
      "0044": 4781,
      "tom": 4782,
      "Ġsets": 4783,
      "Ġ{\"": 4784,
      "115": 4785,
      "Ġruntime": 4786,
      "Ġcomm": 4787,
      "mine": 4788,
      "such": 4789,
      "ĠLinux": 4790,
      "profile": 4791,
      "Ġstrong": 4792,
      "Ġparam": 4793,
      "Ġtrying": 4794,
      "Ġnewext": 4795,
      "excinfo": 4796,
      "irtual": 4797,
      "AppGroup": 4798,
      "Ġserve": 4799,
      "+#.": 4800,
      "Ġfinished": 4801,
      "Ġvalidation": 4802,
      "Ġbox": 4803,
      "disable": 4804,
      "Ġpatterns": 4805,
      "Ġunderlying": 4806,
      "Ġlinks": 4807,
      "âĢĿ": 4808,
      "Ġfeature": 4809,
      "goto": 4810,
      "category": 4811,
      "Ġregard": 4812,
      "Ġquickly": 4813,
      "THON": 4814,
      "ĠSecureCookie": 4815,
      "ĠLocalProxy": 4816,
      "CONTENT": 4817,
      "Ġinserted": 4818,
      "Ġidentify": 4819,
      "Ġscreenshot": 4820,
      "Returns": 4821,
      "HANDLER": 4822,
      "LENGTH": 4823,
      "POLICY": 4824,
      "Topic": 4825,
      "Ġequivalent": 4826,
      "004461": 4827,
      "Ġstrongly": 4828,
      ")'": 4829,
      "Div": 4830,
      "Http": 4831,
      "HOST": 4832,
      "Im": 4833,
      "Redirect": 4834,
      "bles": 4835,
      "cab": 4836,
      "nested": 4837,
      "yles": 4838,
      "ynam": 4839,
      "ĠKeyError": 4840,
      "Ġio": 4841,
      "aliz": 4842,
      "untag": 4843,
      "thers": 4844,
      "('__": 4845,
      "Ġseem": 4846,
      "tegr": 4847,
      "Ġstraight": 4848,
      "oose": 4849,
      "']).": 4850,
      "Ġwhite": 4851,
      "109": 4852,
      "ĠBad": 4853,
      "120": 4854,
      "configuration": 4855,
      "Ġunexpected": 4856,
      "140": 4857,
      "143": 4858,
      "ĠLike": 4859,
      "Ġends": 4860,
      "Ġvar": 4861,
      "Ġfollows": 4862,
      "2223": 4863,
      "208": 4864,
      "codes": 4865,
      "Ġdispatching": 4866,
      "ĠRelease": 4867,
      "Ġenter": 4868,
      "manual": 4869,
      "braries": 4870,
      "Ġcheckout": 4871,
      "Ġbehaviour": 4872,
      "mailing": 4873,
      "lifetime": 4874,
      "Ġbasically": 4875,
      "Ġintended": 4876,
      "Ġprocessing": 4877,
      "Ġunittesting": 4878,
      "Ġconverted": 4879,
      "ĠPyCharm": 4880,
      "Ġcorrespon": 4881,
      "autoescape": 4882,
      "Converter": 4883,
      "Ġrequirement": 4884,
      "ĠSetup": 4885,
      "Ġindic": 4886,
      "Ġearly": 4887,
      "ĠCommand": 4888,
      "Ġbeginning": 4889,
      "Ġconsistent": 4890,
      "Ġmicroframework": 4891,
      "YOURAPPLICATION": 4892,
      "ansport": 4893,
      "Ġcourse": 4894,
      "cabinet": 4895,
      ")',": 4896,
      "+~~~~~~~~~~~~~~~~": 4897,
      "Awesome": 4898,
      "Ctx": 4899,
      "Get": 4900,
      "Host": 4901,
      "noun": 4902,
      "ph": 4903,
      "xies": 4904,
      "ĠKeep": 4905,
      "Ġtmp": 4906,
      "report": 4907,
      "remove": 4908,
      "remote": 4909,
      "ences": 4910,
      "outer": 4911,
      "Ġtotal": 4912,
      "Ġpallets": 4913,
      "Ġdeprecation": 4914,
      "Ġ'')": 4915,
      "Ġannoun": 4916,
      "ĠTr": 4917,
      "ottom": 4918,
      "=====": 4919,
      "named": 4920,
      "Ġnotice": 4921,
      "Ġstrict": 4922,
      "Ġsudo": 4923,
      "allback": 4924,
      "outing": 4925,
      "ĠAb": 4926,
      "121": 4927,
      "ours": 4928,
      "Ġcontextlib": 4929,
      "Ġcontextmanager": 4930,
      "1621": 4931,
      "connection": 4932,
      "222": 4933,
      "Ġsometimes": 4934,
      "venient": 4935,
      "ĠJSONTestCase": 4936,
      "Ġdocuments": 4937,
      "manage": 4938,
      "Ġbehind": 4939,
      "Ġspecifies": 4940,
      "attribute": 4941,
      "Ġpointing": 4942,
      "ĊĠĠĠĠĠĠĠĠĠĠĠĠĠĠĠĠĠĠĠĠĠĠĠĠĠĠĠĠĠĠĠ": 4943,
      "FLASKR": 4944,
      "ĠConfigAttribute": 4945,
      "dispatch": 4946,
      "leton": 4947,
      "metimes": 4948,
      "metaclass": 4949,
      "Ġreqctx": 4950,
      "author": 4951,
      "âĢľ": 4952,
      "Ġitems": 4953,
      "traceback": 4954,
      "Ġmetaclass": 4955,
      "InternalServerError": 4956,
      "MANIFEST": 4957,
      "Ġquestion": 4958,
      "Ġquestions": 4959,
      "Ġconverters": 4960,
      "Ġsuccessfully": 4961,
      "Ġparticular": 4962,
      "Ġappropriate": 4963,
      "Ġannounced": 4964,
      "-%": 4965,
      "215": 4966,
      ":',": 4967,
      "AR": 4968,
      "Apache": 4969,
      "DER": 4970,
      "Middleware": 4971,
      "Time": 4972,
      "Use": 4973,
      "Using": 4974,
      "dent": 4975,
      "kit": 4976,
      "lves": 4977,
      "oct": 4978,
      "pdf": 4979,
      "sort": 4980,
      "vis": 4981,
      "wd": 4982,
      "world": 4983,
      "Ġmeth": 4984,
      "Ġturn": 4985,
      "Ġaffect": 4986,
      "orator": 4987,
      "alic": 4988,
      "ouble": 4989,
      "Ġwants": 4990,
      "settings": 4991,
      "members": 4992,
      "Ġinner": 4993,
      "Ġreleased": 4994,
      "Ġrewrite": 4995,
      "Ġplease": 4996,
      "location": 4997,
      "Ġopt": 4998,
      "Ġ'-": 4999,
      "tection": 5000,
      "icon": 5001,
      "ending": 5002,
      "Ġcover": 5003,
      "ught": 5004,
      "ĠAt": 5005,
      "ĠPOST": 5006,
      "ĠFinally": 5007,
      "Ġ23": 5008,
      "httponly": 5009,
      "Ġ100": 5010,
      "ĠMethodView": 5011,
      "114": 5012,
      "Ġcomb": 5013,
      "active": 5014,
      "Ġexplan": 5015,
      "Ġwhenever": 5016,
      "Ġautom": 5017,
      "186": 5018,
      "259": 5019,
      "-...": 5020,
      "RES": 5021,
      "--------------": 5022,
      "Ġopens": 5023,
      "ifier": 5024,
      "Ġ['_": 5025,
      "setupmethod": 5026,
      "frame": 5027,
      "ĠConfiguration": 5028,
      "Storage": 5029,
      "JinjaLoader": 5030,
      "Ġsubclassing": 5031,
      "Unable": 5032,
      "Ġcharset": 5033,
      "Ġsqlalchemy": 5034,
      "ĠConsider": 5035,
      "Ġdecis": 5036,
      "ĠSessionMixin": 5037,
      "ĠMap": 5038,
      "Baron": 5039,
      "Ġstores": 5040,
      "Ġtarball": 5041,
      "Ġelements": 5042,
      "ĠDatabase": 5043,
      "Ġmajority": 5044,
      "Ġattacks": 5045,
      "deployment": 5046,
      "ĠRedBaron": 5047,
      "nippets": 5048,
      "Ġassociated": 5049,
      "Ġpower": 5050,
      "ĠIOError": 5051,
      "mailinglist": 5052,
      "octet": 5053,
      "\"\\": 5054,
      "%;": 5055,
      ".',": 5056,
      ":/": 5057,
      "And": 5058,
      "Alias": 5059,
      "CT": 5060,
      "John": 5061,
      "Len": 5062,
      "LET": 5063,
      "Method": 5064,
      "Or": 5065,
      "Please": 5066,
      "Row": 5067,
      "Zero": 5068,
      "eu": 5069,
      "kr": 5070,
      "ns": 5071,
      "shell": 5072,
      "snippets": 5073,
      "wait": 5074,
      "ering": 5075,
      "inject": 5076,
      "ascii": 5077,
      "real": 5078,
      "Ġfully": 5079,
      "store": 5080,
      "standard": 5081,
      "Ġbig": 5082,
      "loat": 5083,
      "Ġothers": 5084,
      "Ġdest": 5085,
      "isionError": 5086,
      "FlaskGroup": 5087,
      "flaskstyle": 5088,
      "formed": 5089,
      "cha": 5090,
      "ĠNext": 5091,
      "ĠStep": 5092,
      "idth": 5093,
      "Ġencoded": 5094,
      "does": 5095,
      "126": 5096,
      "versions": 5097,
      "Ġship": 5098,
      "usepackage": 5099,
      "148": 5100,
      ").__": 5101,
      "153": 5102,
      "ressed": 5103,
      "Ġsimpler": 5104,
      "195": 5105,
      "Ġposixpath": 5106,
      "ango": 5107,
      "modwsgi": 5108,
      "spam": 5109,
      "248": 5110,
      "epub": 5111,
      "ĠRegist": 5112,
      "astcgi": 5113,
      "Ġbehave": 5114,
      "Ġrendering": 5115,
      "ĠGet": 5116,
      "export": 5117,
      "Ġdecorators": 5118,
      "Ġdictionaries": 5119,
      "DELET": 5120,
      "working": 5121,
      "ĠAdditionally": 5122,
      "ormally": 5123,
      "Ġformatting": 5124,
      "âĢĻ": 5125,
      "Ġtransmitted": 5126,
      "results": 5127,
      "Ġpickle": 5128,
      "Ġresponses": 5129,
      "ALLSPHINXOPTS": 5130,
      "ĠKeyword": 5131,
      "Ġmaintainer": 5132,
      "inkscape": 5133,
      "Ġtemporary": 5134,
      "DivisionError": 5135,
      "ynamic": 5136,
      "Ġtmpdir": 5137,
      "Length": 5138,
      "ZeroDivisionError": 5139,
      "DELETE": 5140,
      "\"')": 5141,
      "Ad": 5142,
      "Click": 5143,
      "HER": 5144,
      "Vary": 5145,
      "amp": 5146,
      "day": 5147,
      "emit": 5148,
      "fused": 5149,
      "gent": 5150,
      "global": 5151,
      "imp": 5152,
      "long": 5153,
      "micro": 5154,
      "ring": 5155,
      "tenv": 5156,
      "}',": 5157,
      "Ġ('/": 5158,
      "ĠâĢľ": 5159,
      "once": 5160,
      "asant": 5161,
      "Ġsave": 5162,
      "Ġcwd": 5163,
      "Ġfp": 5164,
      "Ġbare": 5165,
      "libe": 5166,
      "Ġremote": 5167,
      "Ġrenders": 5168,
      "Ġplat": 5169,
      "unlink": 5170,
      "('--": 5171,
      "cover": 5172,
      "Ġforget": 5173,
      "tton": 5174,
      "Ġeb": 5175,
      "Ġloop": 5176,
      "andlers": 5177,
      "Ġfire": 5178,
      "ĠWTForms": 5179,
      "diction": 5180,
      "ĠThread": 5181,
      "virtenv": 5182,
      "Ġengin": 5183,
      "doct": 5184,
      "ĠMost": 5185,
      "ĠMiniTwit": 5186,
      "111": 5187,
      "116": 5188,
      "Ġfolders": 5189,
      "Ġcredent": 5190,
      "Ġconvenient": 5191,
      "134": 5192,
      "139": 5193,
      "ĠDon": 5194,
      "197": 5195,
      "2254": 5196,
      "ĠOver": 5197,
      "because": 5198,
      "Ġnothing": 5199,
      "Ġ2018": 5200,
      "notan": 5201,
      "lude": 5202,
      "noindex": 5203,
      "Ġstarting": 5204,
      "Ġ-----------------": 5205,
      "JSONEncoder": 5206,
      "Ġtracker": 5207,
      "Ġ[])": 5208,
      "Ġexecution": 5209,
      "**)": 5210,
      "Ġ---------------": 5211,
      "ĠTeam": 5212,
      "ĠTemplates": 5213,
      "Ġfailure": 5214,
      "execut": 5215,
      "Ġflashing": 5216,
      "Ġfuncs": 5217,
      "Ġbetcha": 5218,
      "Ġunderstand": 5219,
      "BuildError": 5220,
      "Ġspecifying": 5221,
      "Ġgreet": 5222,
      "ĠContinue": 5223,
      "Ġattempts": 5224,
      "ĠImagine": 5225,
      "reqctx": 5226,
      "Ġselected": 5227,
      "Ġkicks": 5228,
      "clear": 5229,
      "ouraged": 5230,
      "PROP": 5231,
      "threads": 5232,
      "Ġcorresponding": 5233,
      "HERE": 5234,
      "Ġengines": 5235,
      "Ġcredentials": 5236,
      "/#": 5237,
      "600": 5238,
      "Down": 5239,
      "EAD": 5240,
      "FER": 5241,
      "LDER": 5242,
      "Mod": 5243,
      "Style": 5244,
      "SORT": 5245,
      "XML": 5246,
      "][": 5247,
      "ap": 5248,
      "je": 5249,
      "sage": 5250,
      "}'": 5251,
      "onical": 5252,
      "atar": 5253,
      "heet": 5254,
      "encoder": 5255,
      "Ġshe": 5256,
      "Ġsort": 5257,
      "dec": 5258,
      "selves": 5259,
      "liable": 5260,
      "Ġob": 5261,
      "Ġappended": 5262,
      "Ġmarkup": 5263,
      "Ġmention": 5264,
      "('[": 5265,
      "__:": 5266,
      "Ġbecom": 5267,
      "getsession": 5268,
      "();": 5269,
      "Ġexpo": 5270,
      "('/<": 5271,
      "Ġstay": 5272,
      "Ġ\"<": 5273,
      "Ġorigin": 5274,
      "Ġbyte": 5275,
      "103": 5276,
      "Refused": 5277,
      "argument": 5278,
      "contextmanager": 5279,
      "Ġdatabases": 5280,
      "117": 5281,
      "Ġgetargspec": 5282,
      "Ġextend": 5283,
      "1559": 5284,
      "addHandler": 5285,
      "ullSession": 5286,
      "2358": 5287,
      "177": 5288,
      "2765": 5289,
      "1898": 5290,
      "2933": 5291,
      "RED": 5292,
      "lum": 5293,
      "sideend": 5294,
      "Ġlearn": 5295,
      "linkcheck": 5296,
      "ignore": 5297,
      "Ġbackwards": 5298,
      "Ġsending": 5299,
      "Ġspecification": 5300,
      "Ġinitdb": 5301,
      "Ġtransaction": 5302,
      "ives": 5303,
      "Approved": 5304,
      "Ġwriting": 5305,
      "Ġserved": 5306,
      "Ġsilently": 5307,
      "Ġcached": 5308,
      "sphinxcontrib": 5309,
      "ĊĠĠĠĠĠĠĠĠĠĠĠĠĠĠĠĠĠĠĠĠĠĠĠĠĠĠĠĠ": 5310,
      "Note": 5311,
      "Ġcustomize": 5312,
      "+------------------": 5313,
      "ĠStreamHandler": 5314,
      "Ġmatches": 5315,
      "HEME": 5316,
      "KEYS": 5317,
      "Ġdicts": 5318,
      "iteritems": 5319,
      "Unregistered": 5320,
      "Ġcallbacks": 5321,
      "ĠApplications": 5322,
      "ĠAlternatively": 5323,
      "Ġ----------------------": 5324,
      "PREFER": 5325,
      "SCHEME": 5326,
      "Ġbinds": 5327,
      "Ġimmediately": 5328,
      "Ġ================": 5329,
      "Ġcharacter": 5330,
      "Ġtransition": 5331,
      "Ġrefers": 5332,
      "Ġstoring": 5333,
      "Ġgreat": 5334,
      "Ġconsidered": 5335,
      "Security": 5336,
      "skipif": 5337,
      "Ġlayout": 5338,
      "ĠGitHub": 5339,
      "ConnectionRefused": 5340,
      "ylesheet": 5341,
      "Ġbecomes": 5342,
      "PREFERRED": 5343,
      "ConnectionRefusedError": 5344,
      "!</": 5345,
      "'\")": 5346,
      ")\"": 5347,
      "/%": 5348,
      "02": 5349,
      "Co": 5350,
      "EA": 5351,
      "ES": 5352,
      "Headers": 5353,
      "bun": 5354,
      "cates": 5355,
      "havi": 5356,
      "ili": 5357,
      "none": 5358,
      "pub": 5359,
      "range": 5360,
      "Ġ):": 5361,
      "Ġjs": 5362,
      "Ġ80": 5363,
      "Ġtd": 5364,
      "Ġtre": 5365,
      "Ġtries": 5366,
      "Ġtask": 5367,
      "ona": 5368,
      "hent": 5369,
      "encies": 5370,
      "Ġsm": 5371,
      "Ġcr": 5372,
      "Ġcirc": 5373,
      "Ġfake": 5374,
      "del": 5375,
      "decoder": 5376,
      "estab": 5377,
      "oud": 5378,
      "Ġwent": 5379,
      "Ġwrap": 5380,
      "Ġwidth": 5381,
      "security": 5382,
      "Ġinvo": 5383,
      "limit": 5384,
      "Ġthree": 5385,
      "Ġ'''": 5386,
      "Ġmat": 5387,
      "Ġmaster": 5388,
      "Ġdue": 5389,
      "('.')": 5390,
      "Ġdefer": 5391,
      "Ġ:)": 5392,
      "teps": 5393,
      "testkey": 5394,
      "Ġimporting": 5395,
      "flaskenv": 5396,
      "Ġ`_": 5397,
      "forward": 5398,
      "ĠSuch": 5399,
      "Ġalternative": 5400,
      "~~~": 5401,
      "Ġprompt": 5402,
      "upgrading": 5403,
      "Ġgreenlet": 5404,
      "106": 5405,
      "107": 5406,
      "Regist": 5407,
      "toc": 5408,
      "ĠHeaders": 5409,
      "ĠHEAD": 5410,
      "150": 5411,
      "ĠInit": 5412,
      "Ġlikely": 5413,
      "Ġproviding": 5414,
      "183": 5415,
      "188": 5416,
      "Ġnewer": 5417,
      "ization": 5418,
      "Ġleave": 5419,
      "ĠRegister": 5420,
      "Ġchangelog": 5421,
      "Ġsends": 5422,
      "Ġdetail": 5423,
      "Ġdifference": 5424,
      "imum": 5425,
      "tags": 5426,
      "ird": 5427,
      "ĠRequestRedirect": 5428,
      "Ġ'/'": 5429,
      "Ġprojects": 5430,
      "Ġmanually": 5431,
      "Ġservi": 5432,
      "ĠAppGroup": 5433,
      "**:": 5434,
      "Ġzero": 5435,
      "Ġprocessor": 5436,
      "Ġautoescaping": 5437,
      "depend": 5438,
      "AGENT": 5439,
      "Create": 5440,
      "Ġplan": 5441,
      "[:-": 5442,
      "Ġdealing": 5443,
      "Ġinitialization": 5444,
      "Templating": 5445,
      "Ġrespond": 5446,
      "Environment": 5447,
      "Ġincluding": 5448,
      "Ġsigned": 5449,
      "Ġtarget": 5450,
      "Ġverify": 5451,
      "Ġdecorated": 5452,
      "Ġdiscouraged": 5453,
      "Ġreceive": 5454,
      "FOLDER": 5455,
      "etags": 5456,
      "Ġminimal": 5457,
      "Allowed": 5458,
      "Ġpackaging": 5459,
      "Ġcommunity": 5460,
      "Ġautomated": 5461,
      "hentic": 5462,
      "Registers": 5463,
      "-*": 5464,
      ".'.": 5465,
      "400": 5466,
      "513": 5467,
      "=[\"": 5468,
      "Dive": 5469,
      "Fix": 5470,
      "FRES": 5471,
      "IREM": 5472,
      "LE": 5473,
      "LIF": 5474,
      "Po": 5475,
      "Special": 5476,
      "Virtual": 5477,
      "`)::": 5478,
      "done": 5479,
      "dates": 5480,
      "lin": 5481,
      "lstrip": 5482,
      "ock": 5483,
      "small": 5484,
      "xb": 5485,
      "}\".": 5486,
      "Ġvirtenv": 5487,
      "Ġestab": 5488,
      "Ġahead": 5489,
      "Ġalias": 5490,
      "ature": 5491,
      "reg": 5492,
      "recorded": 5493,
      "Ġfsize": 5494,
      "alone": 5495,
      "Ġreloading": 5496,
      "uri": 5497,
      "entions": 5498,
      "Ġ'%": 5499,
      "Ġhad": 5500,
      "unic": 5501,
      "uly": 5502,
      "utc": 5503,
      "requests": 5504,
      "ĠSER": 5505,
      "ĠSignals": 5506,
      "Ġrequested": 5507,
      "ides": 5508,
      "ĠFr": 5509,
      "Ġless": 5510,
      "upload": 5511,
      "upSt": 5512,
      "Ġdiff": 5513,
      "envlist": 5514,
      "raceback": 5515,
      "Ġunix": 5516,
      "119": 5517,
      "indow": 5518,
      "jax": 5519,
      "Ġconsult": 5520,
      "131": 5521,
      "156": 5522,
      "buffer": 5523,
      "ĠDec": 5524,
      "Ġexplicit": 5525,
      "ĠIndex": 5526,
      "lause": 5527,
      "2354": 5528,
      "2352": 5529,
      "198": 5530,
      "ETIME": 5531,
      "170": 5532,
      "quired": 5533,
      "REFRES": 5534,
      "Ġthemselves": 5535,
      "Ġanyways": 5536,
      "Ġanything": 5537,
      "mplemented": 5538,
      "ĠReview": 5539,
      "2825": 5540,
      "Login": 5541,
      "ĠDevelopment": 5542,
      "conditional": 5543,
      "Ġexecuting": 5544,
      "archive": 5545,
      "ĠConfiguring": 5546,
      "Ġdistribution": 5547,
      "Continue": 5548,
      "Ġbuilding": 5549,
      "8859": 5550,
      "Stack": 5551,
      "ĠErrors": 5552,
      "errno": 5553,
      "Ġutility": 5554,
      "Ġfixes": 5555,
      "ENTS": 5556,
      "Ġinteracting": 5557,
      "Ġ``/``": 5558,
      "Username": 5559,
      "Ġdots": 5560,
      "Ġpurpose": 5561,
      "Ġassumed": 5562,
      "Ġfalls": 5563,
      "fullname": 5564,
      "({'": 5565,
      "editable": 5566,
      "Ġpkgutil": 5567,
      "perspective": 5568,
      "Ġrelevant": 5569,
      "Ġwrapped": 5570,
      "SetupSt": 5571,
      "ĠLoggingTestCase": 5572,
      "Ġtypically": 5573,
      "ĠLibraries": 5574,
      "euc": 5575,
      "ĠRegistry": 5576,
      "EACH": 5577,
      "IREMENTS": 5578,
      "LIFETIME": 5579,
      "ĠSERVER": 5580,
      "REFRESH": 5581,
      "SetupState": 5582,
      "'&": 5583,
      "+========": 5584,
      ".**": 5585,
      "/'),": 5586,
      "210": 5587,
      ":</": 5588,
      "HORS": 5589,
      "Me": 5590,
      "Most": 5591,
      "NING": 5592,
      "PER": 5593,
      "PLOAD": 5594,
      "VE": 5595,
      "cing": 5596,
      "counter": 5597,
      "hacker": 5598,
      "iven": 5599,
      "md": 5600,
      "mutable": 5601,
      "rapp": 5602,
      "sl": 5603,
      "sent": 5604,
      "wer": 5605,
      "year": 5606,
      "Ġtimes": 5607,
      "onent": 5608,
      "especi": 5609,
      "Ġcenter": 5610,
      "Ġfee": 5611,
      "itespace": 5612,
      "italic": 5613,
      "Ġbro": 5614,
      "Ġbroken": 5615,
      "light": 5616,
      "Ġtogether": 5617,
      "Ġrecursive": 5618,
      "Ġpers": 5619,
      "Ġmag": 5620,
      "Ġrange": 5621,
      "Ġnam": 5622,
      "Ġdouble": 5623,
      "though": 5624,
      "('%": 5625,
      "ational": 5626,
      "ising": 5627,
      "isinstance": 5628,
      "adi": 5629,
      "Ġforbidden": 5630,
      "Ġ``````````": 5631,
      "getsentry": 5632,
      "ices": 5633,
      "Ġevent": 5634,
      "ĠSystem": 5635,
      "roubles": 5636,
      "Ġproto": 5637,
      "TestSuite": 5638,
      "Ġ<!": 5639,
      "doctype": 5640,
      "envtmpdir": 5641,
      "Ġ*/": 5642,
      "ĠMay": 5643,
      "trans": 5644,
      "setattr": 5645,
      "foot": 5646,
      "149": 5647,
      "ĠIncoming": 5648,
      "Ġ43": 5649,
      "Ġability": 5650,
      "Ġ});": 5651,
      "Ġupfr": 5652,
      "Ġupgrading": 5653,
      "Ġupdated": 5654,
      "2259": 5655,
      "2256": 5656,
      "inel": 5657,
      "179": 5658,
      "2603": 5659,
      "2766": 5660,
      "2436": 5661,
      "Ġdirective": 5662,
      "answer": 5663,
      "note": 5664,
      "Ġbackends": 5665,
      "Ġstartup": 5666,
      "Ġaccessible": 5667,
      "ĠNotice": 5668,
      "Ġ----------------------------": 5669,
      "ĠExtra": 5670,
      "Ġexcinfo": 5671,
      "Ġcomponent": 5672,
      "Ġexecutes": 5673,
      "Ġtwice": 5674,
      "ĠWhy": 5675,
      "connected": 5676,
      "Ġbutton": 5677,
      "Ġmyproject": 5678,
      "/>`_,": 5679,
      "deploying": 5680,
      "baz": 5681,
      "Ġescapes": 5682,
      "ĠConnection": 5683,
      "decorators": 5684,
      "Ġmarked": 5685,
      "website": 5686,
      "cwd": 5687,
      "Ġpreserve": 5688,
      "Ġlowercase": 5689,
      "Because": 5690,
      "............": 5691,
      "Ġtears": 5692,
      "ĠImplements": 5693,
      "ARNING": 5694,
      "declarative": 5695,
      "hentication": 5696,
      "Meh": 5697,
      "especially": 5698,
      "Ġfeel": 5699,
      "Ġupfront": 5700,
      "\"}": 5701,
      "(..": 5702,
      "09": 5703,
      "BC": 5704,
      "Check": 5705,
      "CliRunner": 5706,
      "DB": 5707,
      "Ge": 5708,
      "However": 5709,
      "Options": 5710,
      "Pallets": 5711,
      "Then": 5712,
      "Traceback": 5713,
      "^(": 5714,
      "_%": 5715,
      "`),": 5716,
      "ber": 5717,
      "cent": 5718,
      "clean": 5719,
      "culate": 5720,
      "fortunately": 5721,
      "float": 5722,
      "gers": 5723,
      "lli": 5724,
      "loud": 5725,
      "nor": 5726,
      "ron": 5727,
      "ĠGET": 5728,
      "eno": 5729,
      "Ġsuggest": 5730,
      "leasant": 5731,
      "Ġwraps": 5732,
      "step": 5733,
      "Ġblue": 5734,
      "Ġparent": 5735,
      "Ġpleasant": 5736,
      "rome": 5737,
      "Ġ'..": 5738,
      "Ġnic": 5739,
      "Ġhold": 5740,
      "undefined": 5741,
      "isfile": 5742,
      "ads": 5743,
      "Ġforms": 5744,
      "keleton": 5745,
      "Ġlock": 5746,
      "ĠShow": 5747,
      "ĠAUT": 5748,
      "ĠParentException": 5749,
      "ĠFurther": 5750,
      "Ġprodu": 5751,
      "ĊĠĊĠĠĠĠĠĠ": 5752,
      "Ġerrorhandler": 5753,
      "oku": 5754,
      "Ġunpack": 5755,
      "formhelpers": 5756,
      "setLevel": 5757,
      "Ġchapter": 5758,
      "Ġchoose": 5759,
      "sudo": 5760,
      "Ġ[_": 5761,
      "ĠLicense": 5762,
      "135": 5763,
      "ĠRFC": 5764,
      "RequestGlobals": 5765,
      "urrently": 5766,
      "191": 5767,
      "Ġpygments": 5768,
      "ĠVal": 5769,
      "172": 5770,
      "Ġmodname": 5771,
      "Ġoverview": 5772,
      "ĠTesting": 5773,
      "Ġleast": 5774,
      "Ġleak": 5775,
      "Ġ}}\"": 5776,
      "Ġgeneration": 5777,
      "Ġcaps": 5778,
      "autodoc": 5779,
      "tesIO": 5780,
      "Ġserif": 5781,
      "validators": 5782,
      "compatible": 5783,
      "Ġplay": 5784,
      "Ġtrap": 5785,
      "Ġfoobar": 5786,
      "ĠProvi": 5787,
      "Ġutilities": 5788,
      "umer": 5789,
      "showwarning": 5790,
      "Ġcleaner": 5791,
      "Ġcorrectly": 5792,
      "Ġsitting": 5793,
      "Ġmaximum": 5794,
      "Ġintroduction": 5795,
      "AGATE": 5796,
      "Ġsolve": 5797,
      "anchor": 5798,
      "hash": 5799,
      "ĠCreate": 5800,
      "Ġdispatches": 5801,
      "Ġspace": 5802,
      "ALU": 5803,
      "AttributeError": 5804,
      "ANG": 5805,
      "Ġpreferred": 5806,
      "related": 5807,
      "fabric": 5808,
      "([^": 5809,
      "Ġcollections": 5810,
      "ĠForbiddenSubclassRegistered": 5811,
      "Ġdeclare": 5812,
      "Ġstraightforward": 5813,
      "emits": 5814,
      "Ġmentioned": 5815,
      "Ġmagic": 5816,
      "Geor": 5817,
      "Ġnicer": 5818,
      "Ġcapsys": 5819,
      "\"):": 5820,
      "(('": 5821,
      ",)": 5822,
      "=('": 5823,
      "After": 5824,
      "Armin": 5825,
      "Class": 5826,
      "Called": 5827,
      "Clause": 5828,
      "Failed": 5829,
      "IS": 5830,
      "Is": 5831,
      "RU": 5832,
      "bas": 5833,
      "ban": 5834,
      "blue": 5835,
      "fect": 5836,
      "ico": 5837,
      "iet": 5838,
      "ker": 5839,
      "language": 5840,
      "lcome": 5841,
      "mer": 5842,
      "mis": 5843,
      "node": 5844,
      "pend": 5845,
      "slo": 5846,
      "udit": 5847,
      "}')": 5848,
      "Ġ\"\"": 5849,
      "ĠQu": 5850,
      "inner": 5851,
      "rees": 5852,
      "repr": 5853,
      "recursive": 5854,
      "Ġssl": 5855,
      "lection": 5856,
      "also": 5857,
      "Ġincorrect": 5858,
      "Ġrecent": 5859,
      "Ġpain": 5860,
      "Ġdecode": 5861,
      "quote": 5862,
      "Ġmt": 5863,
      "Ġisn": 5864,
      "Ġnet": 5865,
      "isman": 5866,
      "vert": 5867,
      "Ġ``__": 5868,
      "Ġtested": 5869,
      "Ġonwards": 5870,
      "ĠĠĠĠĠĠĠĠĠĠĠĠĠĠĠĠĠĠĠĠĠĠĠĠĠĠĠ": 5871,
      "ĠSay": 5872,
      "ĠAr": 5873,
      "definit": 5874,
      "ĠUsually": 5875,
      "argv": 5876,
      "htmlsafe": 5877,
      "Ġ15": 5878,
      "Ġunre": 5879,
      "ggers": 5880,
      "Ġconvent": 5881,
      "ipedi": 5882,
      "138": 5883,
      "155": 5884,
      "production": 5885,
      "160": 5886,
      "Ġendfor": 5887,
      "ĠRE": 5888,
      "Ġ})": 5889,
      "Ġuploads": 5890,
      "``````": 5891,
      "1936": 5892,
      "2297": 5893,
      "ĠOption": 5894,
      "187": 5895,
      "ightly": 5896,
      "293": 5897,
      "2986": 5898,
      "245": 5899,
      "203": 5900,
      "Ġcalling": 5901,
      "patcher": 5902,
      "Ġdisables": 5903,
      "301": 5904,
      "Ġentire": 5905,
      "Ġgenerates": 5906,
      "JSONTag": 5907,
      "Ġtrust": 5908,
      "iration": 5909,
      "Ġquote": 5910,
      "weight": 5911,
      "dicts": 5912,
      "379": 5913,
      "Ġserializ": 5914,
      "ikipedi": 5915,
      "Ġperfect": 5916,
      "Ġknown": 5917,
      "Ġknows": 5918,
      "NotAllowed": 5919,
      "Ġvalidate": 5920,
      "Control": 5921,
      "ĠDoc": 5922,
      "required": 5923,
      "Unicode": 5924,
      "Ġbugs": 5925,
      "Ġ-----------------------": 5926,
      "sourcelink": 5927,
      "'}):": 5928,
      "webkit": 5929,
      ".*)": 5930,
      ".*,": 5931,
      "MANENT": 5932,
      "+----------+": 5933,
      "Decorator": 5934,
      "+--------------": 5935,
      "Ġintegrated": 5936,
      "---------+----------+----------": 5937,
      "Ġmails": 5938,
      "ppercase": 5939,
      ">\"|": 5940,
      "ĠMethodNotAllowed": 5941,
      "Ġmemory": 5942,
      "malformed": 5943,
      "HttpRequest": 5944,
      "Image": 5945,
      "Admin": 5946,
      "Ġplatforms": 5947,
      "doctrees": 5948,
      "jek": 5949,
      "havior": 5950,
      "mutableDict": 5951,
      "ĠAUTHORS": 5952,
      "RUN": 5953,
      "basename": 5954,
      "ietf": 5955,
      "slots": 5956,
      "ikipedia": 5957,
      "---------+----------+----------+----------+": 5958,
      "\"',": 5959,
      "$(": 5960,
      "(**": 5961,
      "-[": 5962,
      ".).": 5963,
      "=\"\"": 5964,
      ">\",": 5965,
      "Bugfix": 5966,
      "IP": 5967,
      "My": 5968,
      "Usage": 5969,
      "ajax": 5970,
      "but": 5971,
      "clo": 5972,
      "kn": 5973,
      "ling": 5974,
      "mImage": 5975,
      "napp": 5976,
      "never": 5977,
      "public": 5978,
      "patched": 5979,
      "resp": 5980,
      "tu": 5981,
      "tw": 5982,
      "touch": 5983,
      "venv": 5984,
      "vary": 5985,
      "xhr": 5986,
      "Ġespecially": 5987,
      "Ġtables": 5988,
      "relative": 5989,
      "Ġsc": 5990,
      "Ġsentry": 5991,
      "Ġcore": 5992,
      "Ġfastcgi": 5993,
      "detect": 5994,
      "leg": 5995,
      "Ġwatch": 5996,
      "select": 5997,
      "mpath": 5998,
      "Ġinheritance": 5999,
      "array": 6000,
      "-------": 6001,
      "Ġdev": 6002,
      "Ġ'\\\\": 6003,
      "Ġrid": 6004,
      "Ġanch": 6005,
      "ands": 6006,
      "versing": 6007,
      "getvalue": 6008,
      "ics": 6009,
      "abel": 6010,
      "changes": 6011,
      "Ġsuit": 6012,
      "ĠASCII": 6013,
      "ĠPopen": 6014,
      "ĠFlash": 6015,
      "Read": 6016,
      "Ġlif": 6017,
      "ĠClient": 6018,
      "ract": 6019,
      "rays": 6020,
      "Ġadv": 6021,
      "okit": 6022,
      "Ġclients": 6023,
      "cessarily": 6024,
      "cale": 6025,
      "folders": 6026,
      "prepend": 6027,
      "142": 6028,
      "145": 6029,
      "146": 6030,
      "parameter": 6031,
      "bucket": 6032,
      "additional": 6033,
      ")))": 6034,
      "161": 6035,
      "162": 6036,
      "Ġcontro": 6037,
      "2319": 6038,
      "2348": 6039,
      "Ġparser": 6040,
      "ENO": 6041,
      "Ġinterested": 6042,
      "ĠOr": 6043,
      "ongokit": 6044,
      "Ġacts": 6045,
      "Ġmodifications": 6046,
      "296": 6047,
      "localtoc": 6048,
      "2450": 6049,
      "ains": 6050,
      "204": 6051,
      "exclude": 6052,
      "Ġdiscover": 6053,
      "Ġmodel": 6054,
      "ĠEvery": 6055,
      "305": 6056,
      "Ġpreced": 6057,
      "branch": 6058,
      "gress": 6059,
      "443": 6060,
      "ĠĠĠĠĠĠĠĠĠĠĠĠĠĠĠĠĠĠĠĠĠĠĠĠĠĠĠĠĠĠĠĠĠĠĠĠ": 6061,
      "\"],": 6062,
      "ĠSoftware": 6063,
      "401": 6064,
      "FunctionException": 6065,
      "={},": 6066,
      "Runs": 6067,
      "Ġintentions": 6068,
      "reenode": 6069,
      "what": 6070,
      "Ġideas": 6071,
      "ĠStrict": 6072,
      "Ġdistribut": 6073,
      "ĠAdding": 6074,
      "StreamHandler": 6075,
      "calls": 6076,
      "Ġerrno": 6077,
      "Ġrequirements": 6078,
      "Ġlinked": 6079,
      "QUIREMENTS": 6080,
      "ROM": 6081,
      "ĠDiscord": 6082,
      "ĠGeneral": 6083,
      "trace": 6084,
      "Ġmetadata": 6085,
      "OURCE": 6086,
      "generate": 6087,
      "Ġincludes": 6088,
      "callbacks": 6089,
      "ĠDispatchingJinjaLoader": 6090,
      "ĠSubdomainTestCase": 6091,
      "ĠStarting": 6092,
      "ToolsTestCase": 6093,
      "ultiDict": 6094,
      "Ġdescrib": 6095,
      "Ġaway": 6096,
      "ĠChildExceptionRegistered": 6097,
      "Ġsimplifies": 6098,
      "allbackDict": 6099,
      "Ġexplanation": 6100,
      "ĠMiniTwitTestCase": 6101,
      "executes": 6102,
      "Ġservice": 6103,
      "dependent": 6104,
      "ĠREQUIREMENTS": 6105,
      "$\"": 6106,
      ")),": 6107,
      "*,": 6108,
      "+::": 6109,
      ".,": 6110,
      ".)::": 6111,
      "/.": 6112,
      "/{": 6113,
      ":]": 6114,
      "=.": 6115,
      "Fr": 6116,
      "Gener": 6117,
      "ITE": 6118,
      "OM": 6119,
      "Pass": 6120,
      "ParentException": 6121,
      "Tr": 6122,
      "aTe": 6123,
      "big": 6124,
      "cut": 6125,
      "hoot": 6126,
      "lon": 6127,
      "ler": 6128,
      "sites": 6129,
      "vatar": 6130,
      "win": 6131,
      "yStyle": 6132,
      "{\"": 6133,
      "Ġjoin": 6134,
      "ĠZeroDivisionError": 6135,
      "Ġtree": 6136,
      "ond": 6137,
      "Ġast": 6138,
      "rewrite": 6139,
      "Ġsco": 6140,
      "Ġsources": 6141,
      "Ġicon": 6142,
      "secho": 6143,
      "mem": 6144,
      "Ġbases": 6145,
      "ĊĠĠĠĠĠĠĠĠĠĠĠĠĠĠĠ": 6146,
      "arter": 6147,
      "loc": 6148,
      "):')": 6149,
      "Ġocur": 6150,
      "Ġappctx": 6151,
      "Ġappear": 6152,
      "Ġmatched": 6153,
      "Ġhit": 6154,
      "Ġhier": 6155,
      "une": 6156,
      "Ġsettings": 6157,
      "iso": 6158,
      "field": 6159,
      "Flaskr": 6160,
      "acing": 6161,
      "tester": 6162,
      "ulner": 6163,
      "Ġ``_": 6164,
      ":`--": 6165,
      "getcwd": 6166,
      "rix": 6167,
      "endencies": 6168,
      "fork": 6169,
      "ability": 6170,
      "Ġ\"__": 6171,
      "Ġ\"^(": 6172,
      "urls": 6173,
      "ĠStyle": 6174,
      "ĠAccess": 6175,
      "ĠPath": 6176,
      "ĠPEP": 6177,
      "Ġpropag": 6178,
      "Ġglobals": 6179,
      "Ġencoder": 6180,
      "Ġenumer": 6181,
      "Ġdir": 6182,
      "Ġunified": 6183,
      "Ġshall": 6184,
      "suming": 6185,
      "eta": 6186,
      "ĠList": 6187,
      "151": 6188,
      "Ġmoduleapp": 6189,
      "164": 6190,
      "Ġworker": 6191,
      "237": 6192,
      "Init": 6193,
      "ĊĠĊĠĠĠĠĠĠĠĠĠ": 6194,
      "196": 6195,
      "Ġaccount": 6196,
      "ĊĠĠĊ": 6197,
      "267": 6198,
      "276": 6199,
      "ayload": 6200,
      "Ġsomeone": 6201,
      "2414": 6202,
      "2416": 6203,
      "206": 6204,
      "Ġ$(": 6205,
      "That": 6206,
      "Ġlogs": 6207,
      "ĠTestToolsTestCase": 6208,
      "ĠRead": 6209,
      "Ġtimeout": 6210,
      "short": 6211,
      "355": 6212,
      "ĠWSGIServer": 6213,
      "287": 6214,
      "Ġcaught": 6215,
      "ĠExp": 6216,
      "Ġ['--": 6217,
      "ĠRequestBase": 6218,
      "AppCtx": 6219,
      "Logging": 6220,
      "ĠSometimes": 6221,
      "ĠApproved": 6222,
      "reaming": 6223,
      "Ġfinal": 6224,
      "Ġprocesses": 6225,
      "Ġ=======================": 6226,
      "Ġitertools": 6227,
      "ĠWhenever": 6228,
      "Ġknowing": 6229,
      "Ġthreads": 6230,
      "ĠExtensionImporter": 6231,
      "comingbig": 6232,
      "Ġdeclarative": 6233,
      "Domain": 6234,
      "ROK": 6235,
      "dataclass": 6236,
      "Ġcompatible": 6237,
      "Ġbreaks": 6238,
      "Ġlimited": 6239,
      "Uploads": 6240,
      "uggable": 6241,
      "ĠContent": 6242,
      "SecureCookie": 6243,
      "ExtensionImporter": 6244,
      "Ġcondition": 6245,
      "talisman": 6246,
      "Ġtemporarily": 6247,
      "Ġnavigate": 6248,
      "Ġinstantiated": 6249,
      "Ġcollection": 6250,
      "----------------------": 6251,
      "guide": 6252,
      "Ġapplies": 6253,
      "Ġseems": 6254,
      "Ġcombine": 6255,
      "lumn": 6256,
      "buntu": 6257,
      "Ġcircular": 6258,
      "sentinel": 6259,
      "Ġnaming": 6260,
      "Ġprotocol": 6261,
      "ĠValid": 6262,
      "Ġcontrols": 6263,
      "executescript": 6264,
      "Password": 6265,
      "Transport": 6266,
      "aTeX": 6267,
      "Ġhierarch": 6268,
      "Ġ\"^(/": 6269,
      "ĠAccessing": 6270,
      "AppCtxGlobals": 6271,
      ")}": 6272,
      ")``,": 6273,
      "*)": 6274,
      "+%": 6275,
      "+_": 6276,
      "+````````": 6277,
      "08": 6278,
      "223": 6279,
      "315": 6280,
      ";]": 6281,
      "=([^": 6282,
      "At": 6283,
      "Agent": 6284,
      "BSD": 6285,
      "EF": 6286,
      "Implemented": 6287,
      "MultiDict": 6288,
      "PY": 6289,
      "PEP": 6290,
      "Res": 6291,
      "Show": 6292,
      "Simple": 6293,
      "Text": 6294,
      "USE": 6295,
      "ZE": 6296,
      "bexpires": 6297,
      "eg": 6298,
      "ev": 6299,
      "hide": 6300,
      "ired": 6301,
      "kipped": 6302,
      "mtime": 6303,
      "osed": 6304,
      "rm": 6305,
      "sgi": 6306,
      "udi": 6307,
      "umbers": 6308,
      "want": 6309,
      "warn": 6310,
      "wikipedia": 6311,
      "Ġ^": 6312,
      "Ġtrun": 6313,
      "Ġach": 6314,
      "origin": 6315,
      "heel": 6316,
      "Ġsn": 6317,
      "Ġsteps": 6318,
      "Ġskipped": 6319,
      "Ġcross": 6320,
      "Ġfill": 6321,
      "alk": 6322,
      "Ġwsgi": 6323,
      "strap": 6324,
      "Ġpk": 6325,
      "roy": 6326,
      "entially": 6327,
      "Ġthink": 6328,
      "Ġ'--": 6329,
      "Ġmixin": 6330,
      "iskey": 6331,
      "isabs": 6332,
      "Ġuppercase": 6333,
      "ĠTEST": 6334,
      "otstrap": 6335,
      "Ġbecome": 6336,
      "Ġexits": 6337,
      "ĠNumber": 6338,
      "ĠSh": 6339,
      "jsonp": 6340,
      "ĠPage": 6341,
      "ĠFortunately": 6342,
      "Ġinstan": 6343,
      "Ġgra": 6344,
      "ĠUp": 6345,
      "keyerror": 6346,
      "Ġ13": 6347,
      "Ġunchanged": 6348,
      "cial": 6349,
      "trapping": 6350,
      "Ġgets": 6351,
      "Ġchos": 6352,
      "ĠLinks": 6353,
      "ĠJuly": 6354,
      "addfin": 6355,
      "ĠRouting": 6356,
      "Ġvulner": 6357,
      "234": 6358,
      "236": 6359,
      "2385": 6360,
      "2362": 6361,
      "Ġsix": 6362,
      "timedelta": 6363,
      "Ġaccomp": 6364,
      "ĠObject": 6365,
      "171": 6366,
      "266": 6367,
      "Ġblueprintapp": 6368,
      "Ġauthentication": 6369,
      "180": 6370,
      "184": 6371,
      "creating": 6372,
      "333": 6373,
      "Ġ/*": 6374,
      "ĠTestTemplating": 6375,
      "Ġleft": 6376,
      "-------------": 6377,
      "ĠReturn": 6378,
      "Ġallowing": 6379,
      "289": 6380,
      "Ġdifferences": 6381,
      "ĠWelcome": 6382,
      "Application": 6383,
      "ĠĠĠĠĠĠĠĠĠĠĠĠĠĠĠĠĠĠĠĠĠĠĠĠĠĠĠĠĠĠĠĠĠĠĠĠĠ": 6384,
      "Running": 6385,
      "ĠConfigTestCase": 6386,
      "Ġcatching": 6387,
      "Ġhostname": 6388,
      "Ġvalidates": 6389,
      "ĠStatus": 6390,
      "graph": 6391,
      "possible": 6392,
      "Ġautoclass": 6393,
      "Development": 6394,
      "syspath": 6395,
      "iteral": 6396,
      "'''": 6397,
      "Ġstacklevel": 6398,
      "iddlewar": 6399,
      "paste": 6400,
      "Ġplaced": 6401,
      "Ġcontrolled": 6402,
      "large": 6403,
      "sidebars": 6404,
      "ĠComment": 6405,
      "ĠCommon": 6406,
      "While": 6407,
      "+-------------": 6408,
      "hooks": 6409,
      "Ġintroduced": 6410,
      "SENDFILE": 6411,
      "packaging": 6412,
      "models": 6413,
      "Ġattempt": 6414,
      "Before": 6415,
      "ĠImmutableDict": 6416,
      "ĠFlaskrTestCase": 6417,
      "Ġsupposed": 6418,
      "ĠModules": 6419,
      "ĠChangelog": 6420,
      "Ġfavor": 6421,
      "alizer": 6422,
      "Ġdecisions": 6423,
      "dictionaries": 6424,
      "notanapp": 6425,
      "Ġobviously": 6426,
      "utcnow": 6427,
      "PERMANENT": 6428,
      "(...)": 6429,
      "normpath": 6430,
      "ĠFurthermore": 6431,
      "mission": 6432,
      "Ġanchor": 6433,
      "Ġscoped": 6434,
      ";]+)": 6435,
      "=([^;]+)": 6436,
      "ImplementedError": 6437,
      "Ġtruncates": 6438,
      "Ġachie": 6439,
      "Ġchosen": 6440,
      "addfinalizer": 6441,
      "iddlewares": 6442,
      ")]": 6443,
      ")])": 6444,
      "+.": 6445,
      "+-----------": 6446,
      ".\",": 6447,
      ">\"'": 6448,
      "Binary": 6449,
      "Just": 6450,
      "MT": 6451,
      "Open": 6452,
      "System": 6453,
      "WW": 6454,
      "XT": 6455,
      "]'": 6456,
      "dSerializer": 6457,
      "font": 6458,
      "iver": 6459,
      "irect": 6460,
      "jQuery": 6461,
      "jango": 6462,
      "ograph": 6463,
      "rt": 6464,
      "ral": 6465,
      "sd": 6466,
      "ump": 6467,
      "windows": 6468,
      "ĠĊ": 6469,
      "Ġaware": 6470,
      "oring": 6471,
      "asks": 6472,
      "Ġsdist": 6473,
      "Ġsrc": 6474,
      "Ġcal": 6475,
      "Ġcatched": 6476,
      "Ġcaching": 6477,
      "Ġip": 6478,
      "Ġwindows": 6479,
      "section": 6480,
      "setting": 6481,
      "stable": 6482,
      "stylesheet": 6483,
      "arb": 6484,
      "-----": 6485,
      "Ġdetection": 6486,
      "Ġnightly": 6487,
      "unpack": 6488,
      "there": 6489,
      "(':',": 6490,
      "odi": 6491,
      "odip": 6492,
      "licy": 6493,
      "vileg": 6494,
      "Ġ``-": 6495,
      "getsize": 6496,
      "getLogger": 6497,
      "getmtime": 6498,
      "uter": 6499,
      "termine": 6500,
      "pypa": 6501,
      "Ġcanonical": 6502,
      "ĠWWW": 6503,
      "ĠAfter": 6504,
      "ĠAttribute": 6505,
      "ĠAuto": 6506,
      "ĠFactory": 6507,
      "0027": 6508,
      "Ġ24": 6509,
      "Ġmailing": 6510,
      "ĠClass": 6511,
      "ĠCGI": 6512,
      "ĠHow": 6513,
      "ĠHave": 6514,
      "ĠHandlers": 6515,
      "usted": 6516,
      "Ġuntr": 6517,
      "ĠMIT": 6518,
      "ĠMAN": 6519,
      "Example": 6520,
      "Ġshare": 6521,
      "atches": 6522,
      "SELE": 6523,
      "ĠgetLogger": 6524,
      "instead": 6525,
      "Ġconcept": 6526,
      "Ġurls": 6527,
      "ĠDep": 6528,
      "Ġnecessarily": 6529,
      "Ġ403": 6530,
      "ĠRange": 6531,
      "ĠvmImage": 6532,
      "Ġ3600": 6533,
      "2326": 6534,
      "strings": 6535,
      "Ġattacker": 6536,
      "Ġintersphinx": 6537,
      "rstrip": 6538,
      "ĠOK": 6539,
      "174": 6540,
      "176": 6541,
      "279": 6542,
      "job": 6543,
      "185": 6544,
      "ayer": 6545,
      "243": 6546,
      "244": 6547,
      "249": 6548,
      "2412": 6549,
      "2430": 6550,
      "201": 6551,
      "207": 6552,
      "258": 6553,
      "These": 6554,
      "Ġdispatched": 6555,
      "ĠHTTPS": 6556,
      "Ġscripts": 6557,
      "Ġoverwr": 6558,
      "Ġdocumented": 6559,
      "istics": 6560,
      "306": 6561,
      "latin": 6562,
      "nother": 6563,
      "ributor": 6564,
      "TEXT": 6565,
      "Ġchecked": 6566,
      "SERVE": 6567,
      "Ġinitially": 6568,
      "5902": 6569,
      "Log": 6570,
      "Ġpartially": 6571,
      "ĠWhere": 6572,
      "Ġapproval": 6573,
      "={\"": 6574,
      "appengine": 6575,
      "LOL": 6576,
      "Ġ=================================": 6577,
      "Ġitervalues": 6578,
      "Ġdistutils": 6579,
      "Ġcontaining": 6580,
      "splitlines": 6581,
      "Ġfixed": 6582,
      "Ġfixture": 6583,
      "Ġlocals": 6584,
      "Ġinternals": 6585,
      "allowed": 6586,
      "Ġposts": 6587,
      "''%": 6588,
      "Ġformatter": 6589,
      "necessary": 6590,
      "Ġdeploying": 6591,
      ":ï¿½~": 6592,
      "testappgroup": 6593,
      "Ġraw": 6594,
      "PRESERVE": 6595,
      "ĠPYTHON": 6596,
      "Ġbreaking": 6597,
      "Ġhooks": 6598,
      "Once": 6599,
      "contents": 6600,
      "Upload": 6601,
      "Ġclever": 6602,
      "CONTEXT": 6603,
      "EXCEPTION": 6604,
      "ĠdisplayName": 6605,
      "aaa": 6606,
      "ĠDispatchingApp": 6607,
      "Ġsubscribe": 6608,
      "FileStorage": 6609,
      "ĠPreviously": 6610,
      "Ġfavour": 6611,
      "ĠSecureCookieSessionInterface": 6612,
      "TimedSerializer": 6613,
      "realname": 6614,
      "implicit": 6615,
      "Ġbarely": 6616,
      "libevent": 6617,
      "PROPAGATE": 6618,
      "ĠFrontend": 6619,
      "rapper": 6620,
      "Issue": 6621,
      "ĠOptionally": 6622,
      "known": 6623,
      "Ġenumerate": 6624,
      "irectory": 6625,
      "odipodi": 6626,
      "vileges": 6627,
      "ĠAttributeError": 6628,
      "Ġuntrusted": 6629,
      "ĠMANIFEST": 6630,
      "SELECT": 6631,
      "'``.": 6632,
      "'\\\\": 6633,
      "([\"": 6634,
      ",',": 6635,
      "Com": 6636,
      "Directory": 6637,
      "Edit": 6638,
      "Hook": 6639,
      "Let": 6640,
      "Next": 6641,
      "New": 6642,
      "Se": 6643,
      "SNO": 6644,
      "Variable": 6645,
      "WMAN": 6646,
      "]))": 6647,
      "apache": 6648,
      "eue": 6649,
      "ious": 6650,
      "lved": 6651,
      "multiple": 6652,
      "macro": 6653,
      "qt": 6654,
      "tex": 6655,
      "uWSGI": 6656,
      "upper": 6657,
      "xi": 6658,
      "zen": 6659,
      "}|": 6660,
      "ĠK": 6661,
      "enctype": 6662,
      "Ġsal": 6663,
      "Ġcent": 6664,
      "Ġcry": 6665,
      "Ġfactories": 6666,
      "Ġwindow": 6667,
      "anced": 6668,
      "Ġbinary": 6669,
      "Ġbottom": 6670,
      "Ġinlin": 6671,
      "Ġreverse": 6672,
      "locate": 6673,
      "Ġdemon": 6674,
      "Ġ')": 6675,
      "Ġasking": 6676,
      "isible": 6677,
      "Ġug": 6678,
      "ptograph": 6679,
      "licen": 6680,
      "Ġ``````````````````": 6681,
      "()`": 6682,
      "('/'):": 6683,
      "abric": 6684,
      "chdir": 6685,
      "Ġsuites": 6686,
      "alls": 6687,
      "']:": 6688,
      "diff": 6689,
      "Ġprogram": 6690,
      "Ġproxies": 6691,
      "igning": 6692,
      "amble": 6693,
      "uploads": 6694,
      "Ġdies": 6695,
      "ĠsetUp": 6696,
      "__)\\": 6697,
      "ĠHost": 6698,
      "Ġadler": 6699,
      "Ġ1000": 6700,
      "configured": 6701,
      "Ġunwrap": 6702,
      "Ġundefined": 6703,
      "ĠMinim": 6704,
      "software": 6705,
      "Ġshut": 6706,
      "ntil": 6707,
      "instances": 6708,
      "Ġcho": 6709,
      "Ġurlparse": 6710,
      "ĠLat": 6711,
      "ĠLaTeX": 6712,
      "ĠDATABASE": 6713,
      "propag": 6714,
      "ĠInto": 6715,
      "=\"/": 6716,
      "2373": 6717,
      "timeline": 6718,
      "Ġinstalling": 6719,
      "178": 6720,
      "260": 6721,
      "261": 6722,
      "2635": 6723,
      "debughelpers": 6724,
      "debugging": 6725,
      "INFO": 6726,
      "span": 6727,
      "297": 6728,
      "2994": 6729,
      "sending": 6730,
      "Hel": 6731,
      "duct": 6732,
      "202": 6733,
      "256": 6734,
      "coders": 6735,
      "Ġ2012": 6736,
      "Ġ%}<": 6737,
      "notation": 6738,
      "ĠTestConfig": 6739,
      "ĠRefer": 6740,
      "stackover": 6741,
      "Ġgoes": 6742,
      "Ġgenerator": 6743,
      "copying": 6744,
      "JSONDecoder": 6745,
      "ĠExt": 6746,
      "Ġqueue": 6747,
      "weak": 6748,
      "contains": 6749,
      "Local": 6750,
      "Ġpartial": 6751,
      "Ġ-->": 6752,
      "SSL": 6753,
      "devkey": 6754,
      "377": 6755,
      "ĠAppContext": 6756,
      "385": 6757,
      "ĊĠĠĠĠĠĠĠĠĠĠĠĠĠĠĠĠĠĠĠĠĠĠĠĠĠĠĠĠĠĠ": 6758,
      "Ġfinish": 6759,
      "+--------------------------------": 6760,
      "ScriptAlias": 6761,
      "='/',": 6762,
      "BaseLoader": 6763,
      "Ġunittests": 6764,
      "Ġkeeps": 6765,
      "ĠDoe": 6766,
      "HandlerDict": 6767,
      "lorer": 6768,
      "ĠPyPy": 6769,
      "distributing": 6770,
      "Ġdownside": 6771,
      "Ġencodings": 6772,
      "Default": 6773,
      "Ġescaped": 6774,
      "committing": 6775,
      "tempfile": 6776,
      "Ġsections": 6777,
      "EXPLA": 6778,
      "Ġlinkcheck": 6779,
      "ĠMyException": 6780,
      "Ġassume": 6781,
      "netloc": 6782,
      "LOADING": 6783,
      "hashed": 6784,
      "DOT": 6785,
      "Some": 6786,
      "price": 6787,
      "bitbucket": 6788,
      "Ġsyn": 6789,
      "ĠWebsite": 6790,
      "}{,-": 6791,
      "signin": 6792,
      "Ġregisters": 6793,
      "Ġhigher": 6794,
      "Ġemitting": 6795,
      "paper": 6796,
      "}/{": 6797,
      "Ġnavigator": 6798,
      "ĠtearDown": 6799,
      "fabfile": 6800,
      "Ġreleases": 6801,
      "Ġreplaced": 6802,
      "ĠWorking": 6803,
      "Ġdescribe": 6804,
      "yyy": 6805,
      "Ġregards": 6806,
      "Ġparticularly": 6807,
      "ĠOverflow": 6808,
      "arguments": 6809,
      "Copy": 6810,
      "Ġinvolved": 6811,
      "Ġmatrix": 6812,
      "VirtualHost": 6813,
      "Ġestablish": 6814,
      "roubleshoot": 6815,
      "ANGES": 6816,
      "ĠDocVersion": 6817,
      "DecoratorException": 6818,
      "Ġsuitable": 6819,
      "OURCEDIR": 6820,
      "ĠExplorer": 6821,
      "Ġinstanci": 6822,
      "ivers": 6823,
      "SNOWMAN": 6824,
      "qthelp": 6825,
      "Ġsalted": 6826,
      "Ġcentral": 6827,
      "Ġcryptograph": 6828,
      "Ġinliner": 6829,
      "Ġdemonstr": 6830,
      "stackoverflow": 6831,
      "EXPLAIN": 6832,
      "!--": 6833,
      "'``,": 6834,
      ".\")": 6835,
      "213": 6836,
      "534": 6837,
      ":``": 6838,
      ">{%": 6839,
      "AV": 6840,
      "Catch": 6841,
      "DATE": 6842,
      "EGG": 6843,
      "Find": 6844,
      "Hi": 6845,
      "Old": 6846,
      "Other": 6847,
      "RFC": 6848,
      "Root": 6849,
      "SN": 6850,
      "TO": 6851,
      "Title": 6852,
      "Task": 6853,
      "UPLOAD": 6854,
      "air": 6855,
      "center": 6856,
      "carb": 6857,
      "den": 6858,
      "dge": 6859,
      "ele": 6860,
      "else": 6861,
      "gan": 6862,
      "mro": 6863,
      "non": 6864,
      "xhtml": 6865,
      "čĊĠĠĠĠ": 6866,
      "Ġ).": 6867,
      "Ġ74": 6868,
      "Ġjob": 6869,
      "Ġlicen": 6870,
      "Ġapt": 6871,
      "information": 6872,
      "ineno": 6873,
      "orth": 6874,
      "asct": 6875,
      "height": 6876,
      "readed": 6877,
      "Ġskeleton": 6878,
      "Ġcake": 6879,
      "ĠcStringIO": 6880,
      "Ġclone": 6881,
      "Ġcmd": 6882,
      "Ġfg": 6883,
      "Ġfetch": 6884,
      "Ġfavicon": 6885,
      "left": 6886,
      "stant": 6887,
      "Ġblog": 6888,
      "Ġblogging": 6889,
      "lied": 6890,
      "liev": 6891,
      "ĊĠĠĠĠĠĠĠĠĠĠĠĠĠĠĠĠĠĠĠĠĠĠĠ": 6892,
      "Ġpayload": 6893,
      "loating": 6894,
      "):\"": 6895,
      "Ġ'\\": 6896,
      "Ġ'{{": 6897,
      "Ġmount": 6898,
      "Ġnormally": 6899,
      "('../": 6900,
      "Ġask": 6901,
      "comple": 6902,
      ":`__": 6903,
      "getting": 6904,
      "rim": 6905,
      "Ġnotes": 6906,
      "Ġstable": 6907,
      "peak": 6908,
      "ĠIDE": 6909,
      "Ġ\"$": 6910,
      "Ġ\"[": 6911,
      "gia": 6912,
      "ĠSimple": 6913,
      "ĠWHERE": 6914,
      "ĠFROM": 6915,
      "Ġprogramming": 6916,
      "Ġlineno": 6917,
      "ighttpd": 6918,
      "Ġ2231": 6919,
      "ĠCurrently": 6920,
      "128": 6921,
      "single": 6922,
      "criptive": 6923,
      "Ġshared": 6924,
      "caption": 6925,
      "preamble": 6926,
      "Ġchance": 6927,
      "Ġchances": 6928,
      "success": 6929,
      "ĠDes": 6930,
      "ĠURLSafe": 6931,
      "importerror": 6932,
      "165": 6933,
      "fixers": 6934,
      "Ġstructures": 6935,
      "Inter": 6936,
      "mited": 6937,
      "Ġtherefore": 6938,
      "Ġindexing": 6939,
      "Ġart": 6940,
      "Ġarray": 6941,
      "ĠVery": 6942,
      "ĠOper": 6943,
      "269": 6944,
      "believ": 6945,
      "181": 6946,
      "2010": 6947,
      "2526": 6948,
      "Ġ2016": 6949,
      "330": 6950,
      "Ġ%}{%": 6951,
      "dered": 6952,
      "ĠJSONMixin": 6953,
      "Ġ/>": 6954,
      "Ġmodels": 6955,
      "redmine": 6956,
      "wrong": 6957,
      "350": 6958,
      "explicit": 6959,
      "Ġcapt": 6960,
      "Ġcauses": 6961,
      "Ġtrash": 6962,
      "Ġdescriptive": 6963,
      "contributing": 6964,
      "Ġredirected": 6965,
      "ĠDevelop": 6966,
      "Ġcompact": 6967,
      "ultipart": 6968,
      "validate": 6969,
      "+##": 6970,
      "dotted": 6971,
      "CGIRoot": 6972,
      "mock": 6973,
      "ĠStatic": 6974,
      "executable": 6975,
      "posargs": 6976,
      "Ġconverting": 6977,
      "888": 6978,
      "Strict": 6979,
      "Ġautoescape": 6980,
      "ĠProxy": 6981,
      "Sessions": 6982,
      "Unbeliev": 6983,
      "Ġharder": 6984,
      "special": 6985,
      "tempts": 6986,
      "likely": 6987,
      "ĠMyFunctionException": 6988,
      "Docs": 6989,
      "Ġpluggable": 6990,
      "Dispatcher": 6991,
      "ImportError": 6992,
      "Ġcombined": 6993,
      "Ġclosed": 6994,
      "Ġlocations": 6995,
      "azy": 6996,
      "Ġimproved": 6997,
      "ĠSESSION": 6998,
      "Ġbring": 6999,
      "Ġswitching": 7000,
      "Ġcategories": 7001,
      "following": 7002,
      "Instance": 7003,
      "Ġintegrate": 7004,
      "Ġdump": 7005,
      "Ġoperate": 7006,
      "Ġidentifier": 7007,
      "Ġprevents": 7008,
      "ExtensionName": 7009,
      "fetchall": 7010,
      "Parameter": 7011,
      "Ġanswers": 7012,
      "intersphinx": 7013,
      "Ġprior": 7014,
      "'\"<": 7015,
      "Ġrestart": 7016,
      "Ġlistens": 7017,
      "identity": 7018,
      "needs": 7019,
      "guess": 7020,
      "Ġ===============================================": 7021,
      "Ġsubscriber": 7022,
      "BytesIO": 7023,
      "Signature": 7024,
      "(?:": 7025,
      "ĠPasswordField": 7026,
      "lookup": 7027,
      "ĠBadSignature": 7028,
      "Ġindicates": 7029,
      "Ġaffects": 7030,
      "Ġpowered": 7031,
      "ModFastCGI": 7032,
      "Ġcharacteristics": 7033,
      "Ġtreat": 7034,
      "unicorn": 7035,
      "Georgia": 7036,
      "Ġnetwork": 7037,
      "ĠArch": 7038,
      "Ġconvention": 7039,
      "Ġprecedence": 7040,
      "memory": 7041,
      "PYTHON": 7042,
      "Ġfavorite": 7043,
      "=([^;]+)',": 7044,
      "AVIS": 7045,
      "EGGS": 7046,
      "carbon": 7047,
      "Ġlicensed": 7048,
      "asctime": 7049,
      "ighttpdCGIRoot": 7050,
      "ĠURLSafeTimedSerializer": 7051,
      "Unbelievable": 7052,
      "ighttpdCGIRootFix": 7053,
      "&#": 7054,
      ")')": 7055,
      "216": 7056,
      "328": 7057,
      "533": 7058,
      "538": 7059,
      "=_": 7060,
      "?'": 7061,
      "?,": 7062,
      "BE": 7063,
      "Cloud": 7064,
      "IX": 7065,
      "Linux": 7066,
      "Mark": 7067,
      "Node": 7068,
      "NullSession": 7069,
      "NIX": 7070,
      "Over": 7071,
      "Site": 7072,
      "SION": 7073,
      "Since": 7074,
      "TSE": 7075,
      "WTForms": 7076,
      "WARNING": 7077,
      "aises": 7078,
      "border": 7079,
      "bottom": 7080,
      "cer": 7081,
      "could": 7082,
      "cident": 7083,
      "days": 7084,
      "fname": 7085,
      "iases": 7086,
      "jar": 7087,
      "kdir": 7088,
      "math": 7089,
      "mary": 7090,
      "paz": 7091,
      "qa": 7092,
      "ruct": 7093,
      "radi": 7094,
      "say": 7095,
      "src": 7096,
      "uide": 7097,
      "xa": 7098,
      "}\"": 7099,
      "¦¬": 7100,
      "²ĺ": 7101,
      "ë¦¬": 7102,
      "ìĥ": 7103,
      "ìł": 7104,
      "ì²ĺ": 7105,
      "Ġ-------": 7106,
      "ģì²ĺ": 7107,
      "ķìĥ": 7108,
      "Ġtweak": 7109,
      "Ġapache": 7110,
      "inheritance": 7111,
      "eses": 7112,
      "hex": 7113,
      "Ġslight": 7114,
      "Ġscale": 7115,
      "Ġcss": 7116,
      "Ġfloating": 7117,
      "lase": 7118,
      "esting": 7119,
      "estamp": 7120,
      "aliases": 7121,
      "sty": 7122,
      "stalk": 7123,
      "anstalk": 7124,
      "Ġbl": 7125,
      "Ġbaz": 7126,
      "Ġblan": 7127,
      "exe": 7128,
      "lict": 7129,
      "Ġappend": 7130,
      "Ġthird": 7131,
      "Ġ'**": 7132,
      "Ġmapp": 7133,
      "Ġmongokit": 7134,
      "Ġmkdir": 7135,
      "Ġhours": 7136,
      "('-": 7137,
      "Ġsever": 7138,
      "__`": 7139,
      "__``": 7140,
      "__.__": 7141,
      "__\":": 7142,
      "ĠTR": 7143,
      "Ġ``%(": 7144,
      "veinto": 7145,
      "ride": 7146,
      "Ġstd": 7147,
      "intro": 7148,
      "Ġ(?,": 7149,
      "Ġ\".": 7150,
      "ĠSuggest": 7151,
      "Ġsufficient": 7152,
      "Ġorgan": 7153,
      "ĠAL": 7154,
      "ĠPatches": 7155,
      "ĠFiles": 7156,
      "ĠFactories": 7157,
      "diveinto": 7158,
      "Ġprotect": 7159,
      "Ġlack": 7160,
      "maker": 7161,
      "Ġens": 7162,
      "Required": 7163,
      "ĠBugfix": 7164,
      "Ġmaps": 7165,
      "Ġmaking": 7166,
      "ĠUNIX": 7167,
      "ĠCallbackDict": 7168,
      "viewed": 7169,
      "Ġadapter": 7170,
      "`_;": 7171,
      "Ġ11": 7172,
      "Ġunregistered": 7173,
      "indent": 7174,
      "setFormatter": 7175,
      "Ġcodecov": 7176,
      "preprocessors": 7177,
      "ĠJune": 7178,
      "ĠDown": 7179,
      "ĠDist": 7180,
      "Ġexplo": 7181,
      "ĠInside": 7182,
      "ĠIntegr": 7183,
      "166": 7184,
      "ĠRes": 7185,
      "Ġvend": 7186,
      "Ġcontributing": 7187,
      "Ġupon": 7188,
      "nects": 7189,
      "strerror": 7190,
      "ĠVariable": 7191,
      "224": 7192,
      "229": 7193,
      "Ġinterf": 7194,
      "anging": 7195,
      "points": 7196,
      "ĠOf": 7197,
      "ĠOut": 7198,
      "265": 7199,
      "2636": 7200,
      "2606": 7201,
      "182": 7202,
      "290": 7203,
      "2900": 7204,
      "255": 7205,
      "2529": 7206,
      "Ġdirected": 7207,
      "Ġlisted": 7208,
      "3059": 7209,
      "scriptinfo": 7210,
      "Ġresulting": 7211,
      "nosubdomain": 7212,
      "subpath": 7213,
      "SKIP": 7214,
      "Ġendpoints": 7215,
      "imal": 7216,
      "imestamp": 7217,
      "\"><": 7218,
      "Ġdesired": 7219,
      "Ġwebsites": 7220,
      "Ġcomplic": 7221,
      "ĠBlueprintSetupState": 7222,
      "Ġexporting": 7223,
      "Ġexported": 7224,
      "Notice": 7225,
      "Ġbump": 7226,
      "+------------------------------------------------": 7227,
      "Ġhosts": 7228,
      "ĠBehavior": 7229,
      "disposition": 7230,
      "graft": 7231,
      "Ġguar": 7232,
      "Ġseparated": 7233,
      "Ġtoplevel": 7234,
      "Enable": 7235,
      "Ġoverriding": 7236,
      "ĠChrome": 7237,
      "Connects": 7238,
      "Ġprefixes": 7239,
      "Ġprefixed": 7240,
      "Ġinvoking": 7241,
      "Ġpopulate": 7242,
      "Ġ{}).": 7243,
      "Doe": 7244,
      "passed": 7245,
      "ĠDisable": 7246,
      "ĠResponseBase": 7247,
      "Ġplaces": 7248,
      "lastic": 7249,
      "BadRequestKeyError": 7250,
      "override": 7251,
      "Ġ===========": 7252,
      "ssentially": 7253,
      "Ġrefres": 7254,
      "Ġinterpreters": 7255,
      "Ġstorage": 7256,
      "Ġimproving": 7257,
      "Why": 7258,
      "charm": 7259,
      "returned": 7260,
      "ĠBuilding": 7261,
      "ĠCustomException": 7262,
      "Ġhashing": 7263,
      "Ġhashlib": 7264,
      "Ġreplacement": 7265,
      "Ġemits": 7266,
      "Ġpreferable": 7267,
      "Ġ&#": 7268,
      "standalone": 7269,
      "relations": 7270,
      "ĠMethods": 7271,
      "+----------------------": 7272,
      "++++++++": 7273,
      "Ġeditor": 7274,
      "Ġdocstring": 7275,
      "Ġminimum": 7276,
      "Ġperformance": 7277,
      "developers": 7278,
      "ĠWorks": 7279,
      "ĠGood": 7280,
      "Ġapplied": 7281,
      "converters": 7282,
      "NOTSE": 7283,
      "Ġbasis": 7284,
      "Ġdestroy": 7285,
      "XMLHttpRequest": 7286,
      "Ġsmarter": 7287,
      "Ġcrash": 7288,
      "Ġcomponents": 7289,
      "Ġproduce": 7290,
      "Ġserializing": 7291,
      ".*)$\"": 7292,
      "Ġlifetime": 7293,
      "Ġdistributed": 7294,
      "loning": 7295,
      "ĠValidation": 7296,
      "fontpkg": 7297,
      "sdk": 7298,
      "Ġcalculate": 7299,
      "DOTENV": 7300,
      "OldSessions": 7301,
      "importerrorapp": 7302,
      "mathpaz": 7303,
      "radius": 7304,
      "ìłķìĥ": 7305,
      "ģì²ĺë¦¬": 7306,
      "Ġ'**':": 7307,
      "Ġseveral": 7308,
      "ĠSuggestions": 7309,
      "diveintohtml": 7310,
      "NOTSET": 7311,
      "mathpazo": 7312,
      "ìłķìĥģì²ĺë¦¬": 7313,
      ")['": 7314,
      ",\\": 7315,
      "-::": 7316,
      ".'),": 7317,
      "/\"),": 7318,
      "211": 7319,
      "314": 7320,
      "437": 7321,
      "477": 7322,
      "511": 7323,
      "524": 7324,
      "644": 7325,
      ":')": 7326,
      "=%": 7327,
      "Al": 7328,
      "But": 7329,
      "Don": 7330,
      "ED": 7331,
      "Files": 7332,
      "Handl": 7333,
      "Ind": 7334,
      "Never": 7335,
      "PYP": 7336,
      "Signals": 7337,
      "VALU": 7338,
      "bam": 7339,
      "bust": 7340,
      "bdist": 7341,
      "cp": 7342,
      "either": 7343,
      "fri": 7344,
      "fÃ¶": 7345,
      "ha": 7346,
      "hoc": 7347,
      "mmy": 7348,
      "multipart": 7349,
      "sdist": 7350,
      "td": 7351,
      "}\\'": 7352,
      "Ã¼": 7353,
      "Ġ----------": 7354,
      "ĠYour": 7355,
      "Ġtasks": 7356,
      "ernally": 7357,
      "Ġali": 7358,
      "Ġapi": 7359,
      "inning": 7360,
      "esides": 7361,
      "atis": 7362,
      "assing": 7363,
      "Ġsodipodi": 7364,
      "Ġfd": 7365,
      "Ġfact": 7366,
      "Ġflashed": 7367,
      "itive": 7368,
      "sep": 7369,
      "seps": 7370,
      "anks": 7371,
      "Ġinherit": 7372,
      "Ġrely": 7373,
      "Ġreliable": 7374,
      "Ġpub": 7375,
      "Ġdecoder": 7376,
      "Ġng": 7377,
      "Ġdynamic": 7378,
      "Ġhack": 7379,
      "('\\": 7380,
      "('',": 7381,
      "')\"": 7382,
      "isk": 7383,
      "admonition": 7384,
      "__',": 7385,
      "__())": 7386,
      "ĠText": 7387,
      "licity": 7388,
      "teger": 7389,
      "Ġfork": 7390,
      "Ġbeaut": 7391,
      ":`_": 7392,
      "tters": 7393,
      "Ġtestapp": 7394,
      "Ġstand": 7395,
      "Ġemb": 7396,
      "ĠIS": 7397,
      "ooth": 7398,
      "ultid": 7399,
      "ĊĠĠĠĠĠĠĠĠĠĠĠĠĠĠ": 7400,
      "gies": 7401,
      "ĠNamespace": 7402,
      "ĠSim": 7403,
      "ĠWould": 7404,
      "ĠWhether": 7405,
      "may": 7406,
      "Ġgain": 7407,
      "Ġenlist": 7408,
      "Ġ29": 7409,
      "__).": 7410,
      "ĠUUID": 7411,
      "Ġfilepath": 7412,
      "ĠHead": 7413,
      "Ġ14": 7414,
      "-----------------": 7415,
      "ĠMan": 7416,
      "usr": 7417,
      "aches": 7418,
      "Ġpast": 7419,
      "Ġcodecs": 7420,
      "Ġconsu": 7421,
      "Ġchop": 7422,
      "154": 7423,
      "ĠDynamic": 7424,
      "ĠDjango": 7425,
      "Ġnear": 7426,
      "iful": 7427,
      "refc": 7428,
      "laim": 7429,
      "Ġcontributor": 7430,
      "2314": 7431,
      "2316": 7432,
      "2374": 7433,
      "iece": 7434,
      "githubuser": 7435,
      "Ġattr": 7436,
      "emon": 7437,
      "221": 7438,
      "pointsize": 7439,
      "ĠOptions": 7440,
      "173": 7441,
      "2629": 7442,
      "2607": 7443,
      "2693": 7444,
      "2651": 7445,
      "2709": 7446,
      "Ġautode": 7447,
      "Ġautodoc": 7448,
      "189": 7449,
      "Ġreset": 7450,
      "modindex": 7451,
      "291": 7452,
      "Ġnoqa": 7453,
      "241": 7454,
      "dummy": 7455,
      "250": 7456,
      "251": 7457,
      "2586": 7458,
      "2581": 7459,
      "Ġdirectories": 7460,
      "335": 7461,
      "Ġlooked": 7462,
      "rendering": 7463,
      "isted": 7464,
      "links": 7465,
      "Ġpreviously": 7466,
      "ternally": 7467,
      "ĠRemoved": 7468,
      "ĠRelase": 7469,
      "Ġ}}',": 7470,
      "349": 7471,
      "Ġgenerating": 7472,
      "ĠGe": 7473,
      "360": 7474,
      "283": 7475,
      "Ġlatter": 7476,
      "Ġcaution": 7477,
      "ĠXSS": 7478,
      "iving": 7479,
      "Ġquot": 7480,
      "Ġ'/<": 7481,
      "Ġ'/')": 7482,
      "ĠĠĠĠĠĠĠĠĠĠĠĠĠĠĠĠĠĠĠĠĠĠĠĠĠĠĠĠĠĠĠĠĠĠ": 7483,
      "Blueprints": 7484,
      "Ġcomputer": 7485,
      "405": 7486,
      "387": 7487,
      "psis": 7488,
      "Ġpermission": 7489,
      "+-------------------": 7490,
      "ifiedRequest": 7491,
      "dots": 7492,
      "Ġshowing": 7493,
      "LOW": 7494,
      "whiskey": 7495,
      "bootstrap": 7496,
      "Ġvalidators": 7497,
      "Ġsubdomains": 7498,
      "ĠBefore": 7499,
      "Ġreads": 7500,
      "arently": 7501,
      "Ġsimplicity": 7502,
      "Ġmodifying": 7503,
      "Subproject": 7504,
      "tempor": 7505,
      "Ġtried": 7506,
      "trigger": 7507,
      "ĠMyEncoder": 7508,
      "ĠMyDecoder": 7509,
      "ĠMyDecoratorException": 7510,
      "specified": 7511,
      "MarkupSafe": 7512,
      "Ġ=============": 7513,
      "Ġquickstart": 7514,
      "ĠViewTestCase": 7515,
      "Querying": 7516,
      "persize": 7517,
      "Ġconnecting": 7518,
      "Ġdeleg": 7519,
      "ĠInstallation": 7520,
      "+(:": 7521,
      "Ġreports": 7522,
      "Ġ~/": 7523,
      "Ġ?',": 7524,
      "Ġadditionally": 7525,
      "Ġoperations": 7526,
      "__':``": 7527,
      "Ġrobust": 7528,
      "Ġelement": 7529,
      "Ġ':'": 7530,
      "Ġconsists": 7531,
      "papersize": 7532,
      "Ġprimary": 7533,
      "LERY": 7534,
      "'\"\\": 7535,
      "Ġmoved": 7536,
      "Ġeditable": 7537,
      "ĠForbiddenSubclassUnregistered": 7538,
      "cmd": 7539,
      "Ġreplaces": 7540,
      "ĠModifiedRequest": 7541,
      "existing": 7542,
      "ĠColumn": 7543,
      "Ġtypical": 7544,
      "Ġsooner": 7545,
      "Ġterm": 7546,
      "ĠChildExceptionUnregistered": 7547,
      "Ġsimplified": 7548,
      "ĠLikewise": 7549,
      "ĠTracker": 7550,
      "Ġopts": 7551,
      "Ġexposing": 7552,
      "Ġexposed": 7553,
      "ĠInitialized": 7554,
      "Ġpersona": 7555,
      "llipsis": 7556,
      "Ġunpacking": 7557,
      "definitions": 7558,
      "Ġunreliable": 7559,
      "Ġpropagation": 7560,
      "Ġhierarchy": 7561,
      "Ġestablishing": 7562,
      "deredDict": 7563,
      "Ġvendors": 7564,
      "PYPY": 7565,
      "VALUE": 7566,
      "fÃ¶Ã¶": 7567,
      "Ġbeautiful": 7568,
      "ultidict": 7569,
      "githubusercontent": 7570,
      "#\"": 7571,
      "'{": 7572,
      "(%": 7573,
      "*':": 7574,
      "+__": 7575,
      "++--------------------------------": 7576,
      "-_": 7577,
      "/`": 7578,
      "01": 7579,
      "212": 7580,
      "2193": 7581,
      "312": 7582,
      "323": 7583,
      "329": 7584,
      "452": 7585,
      ":%": 7586,
      "=-": 7587,
      "=__": 7588,
      ">.": 7589,
      "All": 7590,
      "Clone": 7591,
      "DSN": 7592,
      "Given": 7593,
      "How": 7594,
      "MIT": 7595,
      "MiniTwit": 7596,
      "Option": 7597,
      "Routing": 7598,
      "Signal": 7599,
      "TEN": 7600,
      "Work": 7601,
      "Wrapper": 7602,
      "XHTML": 7603,
      "`;": 7604,
      "bound": 7605,
      "cus": 7606,
      "cuto": 7607,
      "ez": 7608,
      "efficient": 7609,
      "lined": 7610,
      "must": 7611,
      "ncy": 7612,
      "opped": 7613,
      "same": 7614,
      "system": 7615,
      "since": 7616,
      "tp": 7617,
      "tz": 7618,
      "trap": 7619,
      "timestamp": 7620,
      "way": 7621,
      "wraps": 7622,
      "wheel": 7623,
      "xsendfile": 7624,
      "yp": 7625,
      "}}": 7626,
      "}\",": 7627,
      "čĊĠĠ": 7628,
      "Ġ;": 7629,
      "Ġ--------": 7630,
      "ĠET": 7631,
      "Ġ())": 7632,
      "Ġ])": 7633,
      "Ġ127": 7634,
      "Ġ8080": 7635,
      "Ġtend": 7636,
      "Ġaudit": 7637,
      "attempts": 7638,
      "reason": 7639,
      "renders": 7640,
      "rency": 7641,
      "Ġsur": 7642,
      "Ġcame": 7643,
      "Ġcloning": 7644,
      "demand": 7645,
      "already": 7646,
      "sequ": 7647,
      "separ": 7648,
      "anav": 7649,
      "Ġbook": 7650,
      "Ġinefficient": 7651,
      "Ġtoken": 7652,
      "Ġremo": 7653,
      "Ġpiece": 7654,
      "rozen": 7655,
      "gel": 7656,
      "Ġ'[": 7657,
      "Ġmis": 7658,
      "appgroup": 7659,
      "Ġisol": 7660,
      "Ġhating": 7661,
      "unit": 7662,
      "unch": 7663,
      "unfollow": 7664,
      "Ġassign": 7665,
      "ison": 7666,
      "ado": 7667,
      "fizz": 7668,
      "FlaskyStyle": 7669,
      "',])": 7670,
      ":`-": 7671,
      "getargspec": 7672,
      "icates": 7673,
      "endering": 7674,
      "Ġcompl": 7675,
      "Ġstopped": 7676,
      "valu": 7677,
      "...": 7678,
      "Ġevalu": 7679,
      "pep": 7680,
      "onfirm": 7681,
      "eword": 7682,
      "Ġlocated": 7683,
      "oom": 7684,
      "ĠNullSession": 7685,
      "ĠSpecial": 7686,
      "ĠAnother": 7687,
      "ĠPo": 7688,
      "ĠFree": 7689,
      "differ": 7690,
      "Ġprocessed": 7691,
      "Ġwhitespace": 7692,
      "Ġgen": 7693,
      "Ġdive": 7694,
      "Ġhttponly": 7695,
      "Ġmap": 7696,
      "ĠHel": 7697,
      "Ġerrorhandlers": 7698,
      "configure": 7699,
      "ĠMark": 7700,
      "ĠMany": 7701,
      "ĠMRO": 7702,
      "ĠMock": 7703,
      "sole": 7704,
      "Ġcomments": 7705,
      "ĊĠĠĠĠĠĠĠĠĠĠĠĠĠĠĠĠĠ": 7706,
      "preprocessor": 7707,
      "~~~~~": 7708,
      "minimal": 7709,
      "Ġchanging": 7710,
      "ĠLine": 7711,
      "ĠLook": 7712,
      "158": 7713,
      "ariables": 7714,
      "buzz": 7715,
      "ift": 7716,
      "ĠInclude": 7717,
      "169": 7718,
      "Ġoutlined": 7719,
      "Ġ}),": 7720,
      "239": 7721,
      "190": 7722,
      "Ġpasses": 7723,
      "Ġarrays": 7724,
      "Ġaccord": 7725,
      "226": 7726,
      "2288": 7727,
      "Ġinteresting": 7728,
      "175": 7729,
      "Ġsubpath": 7730,
      "Ġsubprocess": 7731,
      "2691": 7732,
      "ĠForm": 7733,
      "277": 7734,
      "Ġresol": 7735,
      "298": 7736,
      "Ġcurrentmodule": 7737,
      "253": 7738,
      "blueprintapp": 7739,
      "month": 7740,
      "ĠEssentially": 7741,
      "simplefilter": 7742,
      "Ġlets": 7743,
      "Ġleaves": 7744,
      "Ġprevious": 7745,
      "343": 7746,
      "Ġgenerally": 7747,
      "Ġmeh": 7748,
      "Ġaccessing": 7749,
      "359": 7750,
      "ĠNotImplementedError": 7751,
      "Ġ-------------------": 7752,
      "expiration": 7753,
      "281": 7754,
      "288": 7755,
      "Form": 7756,
      "Ġchecking": 7757,
      "atted": 7758,
      "ĠDeprecation": 7759,
      "376": 7760,
      "community": 7761,
      "Ġserialized": 7762,
      "ĠUnexpected": 7763,
      "ĠLog": 7764,
      "ĠLogger": 7765,
      "GroupMixin": 7766,
      "397": 7767,
      "Ġblocks": 7768,
      "Ġcustomiz": 7769,
      "Ġcustomized": 7770,
      "Ġcatchall": 7771,
      "Ġ====================": 7772,
      "Ġiterkeys": 7773,
      "Ġfailing": 7774,
      "Ġfailures": 7775,
      "discord": 7776,
      "metadata": 7777,
      "metanav": 7778,
      "Start": 7779,
      "ĠPyStringIO": 7780,
      "Ġoverriden": 7781,
      "999": 7782,
      "Delete": 7783,
      "ĠTODO": 7784,
      "ĠScriptAlias": 7785,
      "Ġmainly": 7786,
      "EXTEN": 7787,
      "ĠMyFlask": 7788,
      "Ġocc": 7789,
      "Ġ---------------------": 7790,
      "specification": 7791,
      "heroku": 7792,
      "Ġrecommendations": 7793,
      "ĠSubmount": 7794,
      "Ġinterpreted": 7795,
      "Ġ\"/\"": 7796,
      "automatically": 7797,
      "Ġavoids": 7798,
      "ĠViews": 7799,
      "Ġcopyright": 7800,
      "Ġrefact": 7801,
      "ĠLocalStack": 7802,
      "Ġpicked": 7803,
      "Template": 7804,
      "ĠRequestContextTestCase": 7805,
      "generation": 7806,
      "ledge": 7807,
      "Ġsplit": 7808,
      "Additionally": 7809,
      "MethodViewType": 7810,
      "Ġexplained": 7811,
      "fetchone": 7812,
      "Ġdisclaim": 7813,
      "ĠSetting": 7814,
      "Ġmoving": 7815,
      "../../": 7816,
      "ĠImplemented": 7817,
      "Ġsupplied": 7818,
      "Ġ===========================================": 7819,
      "Within": 7820,
      "Ġ~~~~~~~~~~~~~~": 7821,
      "ornado": 7822,
      "documents": 7823,
      "Ġdeclared": 7824,
      "/*+": 7825,
      "Ġtermin": 7826,
      "Ġconfusing": 7827,
      "ĠAbout": 7828,
      "sorting": 7829,
      "iliz": 7830,
      "delitem": 7831,
      "ĠMaybe": 7832,
      "ĠConnections": 7833,
      "Ġlocked": 7834,
      "banner": 7835,
      "Ġincorrectly": 7836,
      "UnicodeError": 7837,
      ".*,!=": 7838,
      "closed": 7839,
      "Ġscans": 7840,
      "Ġ'\\\\/'": 7841,
      "Ġdescribed": 7842,
      "Ġconditions": 7843,
      "Ġachieve": 7844,
      "MTP": 7845,
      "Ġuglier": 7846,
      "ĠMinimum": 7847,
      "SIONS": 7848,
      "Ġblank": 7849,
      "+----------------------------------------------------": 7850,
      "Ġrefreshed": 7851,
      "Indicates": 7852,
      "ĠSimilar": 7853,
      "Ġautodetect": 7854,
      "LOWED": 7855,
      "++-----------------------------------------+----------+----------+----------+": 7856,
      "cutoff": 7857,
      "ĠETag": 7858,
      "sequent": 7859,
      "Ġcomplain": 7860,
      "ĠUnexpectedUnicodeError": 7861,
      "EXTENSIONS": 7862,
      "Ġdisclaimer": 7863,
      "\"<": 7864,
      "'')": 7865,
      "'__": 7866,
      "'ve": 7867,
      "*=": 7868,
      "-__": 7869,
      "219": 7870,
      "217": 7871,
      "300": 7872,
      "311": 7873,
      "313": 7874,
      "411": 7875,
      "418": 7876,
      "459": 7877,
      "469": 7878,
      ";/": 7879,
      "BN": 7880,
      "Bad": 7881,
      "Effect": 7882,
      "Fping": 7883,
      "GR": 7884,
      "IG": 7885,
      "James": 7886,
      "License": 7887,
      "MET": 7888,
      "Mongo": 7889,
      "MGR": 7890,
      "Nand": 7891,
      "OK": 7892,
      "Of": 7893,
      "Pre": 7894,
      "QZ": 7895,
      "SL": 7896,
      "Sphinx": 7897,
      "Windows": 7898,
      "XX": 7899,
      "XMGR": 7900,
      "Zip": 7901,
      "Zap": 7902,
      "_')": 7903,
      "boom": 7904,
      "caching": 7905,
      "ds": 7906,
      "ef": 7907,
      "falls": 7908,
      "gant": 7909,
      "junit": 7910,
      "mt": 7911,
      "markup": 7912,
      "rr": 7913,
      "rupt": 7914,
      "uation": 7915,
      "uino": 7916,
      "vg": 7917,
      "¼ı": 7918,
      "Ãº": 7919,
      "Ãĳ": 7920,
      "ï¼ı": 7921,
      "ĠĊĠ": 7922,
      "Ġ---------": 7923,
      "ĠQuerying": 7924,
      "Ġtmpl": 7925,
      "Ġtab": 7926,
      "erved": 7927,
      "invalid": 7928,
      "integr": 7929,
      "atory": 7930,
      "rection": 7931,
      "Ġcare": 7932,
      "Ġfam": 7933,
      "Ġfreenode": 7934,
      "deprecated": 7935,
      "alize": 7936,
      "itz": 7937,
      "ante": 7938,
      "anded": 7939,
      "Ġinforms": 7940,
      "ĊĠĠĠĠĠĠĠĠĠĠ": 7941,
      "Ġpul": 7942,
      "roval": 7943,
      "roll": 7944,
      "gevent": 7945,
      "Ġthreaded": 7946,
      "Ġ'&": 7947,
      "Ġ'',": 7948,
      "Ġmit": 7949,
      "Ġmtime": 7950,
      "Ġmutable": 7951,
      "Ġissu": 7952,
      "Ġissubclass": 7953,
      "Ġnative": 7954,
      "Ġnumbers": 7955,
      "Ġdum": 7956,
      "unless": 7957,
      "Ġseen": 7958,
      "')``": 7959,
      "Ġdefines": 7960,
      "atever": 7961,
      "ĠTable": 7962,
      "ĠTra": 7963,
      "andÃº": 7964,
      "Ġbecomingbig": 7965,
      "utomatic": 7966,
      "()['": 7967,
      "()])": 7968,
      "Ġexpr": 7969,
      "termin": 7970,
      "Ġnotifications": 7971,
      "ĠFlaskCliRunner": 7972,
      "Ġstop": 7973,
      "Ġlost": 7974,
      "Ġloggers": 7975,
      "ĠSSL": 7976,
      "htaccess": 7977,
      "Ġord": 7978,
      "alling": 7979,
      "ĠPun": 7980,
      "ĠPush": 7981,
      "ĠPassing": 7982,
      "ĠFabric": 7983,
      "Ġlayer": 7984,
      "0026": 7985,
      "uploaded": 7986,
      "Ġgr": 7987,
      "Ġhttpd": 7988,
      "ĠUntil": 7989,
      "Ġ*/')": 7990,
      "Ġunused": 7991,
      "ĠMac": 7992,
      "ĠMess": 7993,
      "ĠMore": 7994,
      "ĠMode": 7995,
      "ĠMapping": 7996,
      "ĠMeta": 7997,
      "Ext": 7998,
      "socket": 7999,
      "Ġcomment": 8000,
      "caps": 8001,
      "147": 8002,
      "Ġconcer": 8003,
      "Ġchild": 8004,
      "ardInter": 8005,
      "staticmethod": 8006,
      "ĠLiteral": 8007,
      "137": 8008,
      "152": 8009,
      "ĠDue": 8010,
      "probably": 8011,
      "Ġneither": 8012,
      "iveLevel": 8013,
      "lakes": 8014,
      "Ġ31": 8015,
      "230": 8016,
      "235": 8017,
      "construct": 8018,
      "timetuple": 8019,
      "Ġacross": 8020,
      "220": 8021,
      "dbcon": 8022,
      "264": 8023,
      "2666": 8024,
      "2676": 8025,
      "2692": 8026,
      "2722": 8027,
      "2728": 8028,
      "Ġmodification": 8029,
      "240": 8030,
      "247": 8031,
      "Ġ\\'": 8032,
      "205": 8033,
      "257": 8034,
      "Ġ206": 8035,
      "Ġ2017": 8036,
      "Ġ$('": 8037,
      "notes": 8038,
      "Ġdisconnect": 8039,
      "Ġoverwrite": 8040,
      "ĠTestLogging": 8041,
      "Ġlead": 8042,
      "Ġleading": 8043,
      "ĠRemember": 8044,
      "Ġ}}{%": 8045,
      "subscri": 8046,
      "ĠGiven": 8047,
      "363": 8048,
      "364": 8049,
      "Ġ------------------------": 8050,
      "expire": 8051,
      "Ġrequiring": 8052,
      "Forwarded": 8053,
      "ĠXXX": 8054,
      "(\"/\").": 8055,
      "444": 8056,
      "375": 8057,
      "Ġafterwards": 8058,
      "Ġpossi": 8059,
      "ĠApproval": 8060,
      "575": 8061,
      "388": 8062,
      "399": 8063,
      "Ġfinaliz": 8064,
      "Ġtrace": 8065,
      "levelname": 8066,
      "matches": 8067,
      "ĠBasically": 8068,
      "482": 8069,
      "Ġ==================": 8070,
      "Ġiterates": 8071,
      "boardInter": 8072,
      "ï¿½ï¿½.": 8073,
      "Ġcontainer": 8074,
      "Ġcontained": 8075,
      "Ġdidn": 8076,
      "Ġported": 8077,
      "download": 8078,
      "Ġintegers": 8079,
      "ĠDocument": 8080,
      "ĠEntry": 8081,
      "changelog": 8082,
      "pingÃ¼": 8083,
      "pinguino": 8084,
      "Ġreading": 8085,
      "Ġthreadsafe": 8086,
      "allowing": 8087,
      "Ġhardcode": 8088,
      "Ġdeployments": 8089,
      "customization": 8090,
      "Ġframe": 8091,
      "Ġtrim": 8092,
      "'``)": 8093,
      "Ġsimilarly": 8094,
      "EXIT": 8095,
      "Ġdeclar": 8096,
      "iltin": 8097,
      "Ġproblematic": 8098,
      "Documentation": 8099,
      "finalize": 8100,
      "Ġdeveloping": 8101,
      "ĠBadRequestKeyError": 8102,
      "olders": 8103,
      "Ġraven": 8104,
      "ĠUseful": 8105,
      "Dispatching": 8106,
      "Dependencies": 8107,
      "Ġ'<%": 8108,
      "ImportHook": 8109,
      "Sometimes": 8110,
      "Ġsecurely": 8111,
      "'}),": 8112,
      "Ġmeta": 8113,
      "Ġpatchfile": 8114,
      "azure": 8115,
      "Ġremembered": 8116,
      "Ġcomplexity": 8117,
      "raised": 8118,
      "Ġ'.'.": 8119,
      "Ġtriggered": 8120,
      "generator": 8121,
      "Ġincluded": 8122,
      "ĠFileSystem": 8123,
      "Ġspaces": 8124,
      "Ġintegrity": 8125,
      "Ġelegant": 8126,
      "Ġmaintainers": 8127,
      "Ġinjection": 8128,
      "Ġbuffered": 8129,
      "Parses": 8130,
      "Ġ':'))": 8131,
      "Ġtaken": 8132,
      "partial": 8133,
      "Ġprivileges": 8134,
      "PathLike": 8135,
      "collection": 8136,
      "slashes": 8137,
      "Ġlistening": 8138,
      "SQLITE": 8139,
      "-----------------------": 8140,
      "Ġrepresenting": 8141,
      "Ġwrapper": 8142,
      "Ġ~~~~~~~~~~~~~~~~~~~": 8143,
      "Ġmemcached": 8144,
      "Any": 8145,
      "requirements": 8146,
      "Short": 8147,
      "pkgutil": 8148,
      "Ġpublicly": 8149,
      "33333333": 8150,
      "ĠSecureCookieSession": 8151,
      "ĠMethodViewType": 8152,
      "Ġdecision": 8153,
      "Ġtarballs": 8154,
      "CTXMGR": 8155,
      "injection": 8156,
      "longer": 8157,
      "Ġsmooth": 8158,
      "Ġdeferred": 8159,
      "Popped": 8160,
      "ĠSignalsTestCase": 8161,
      "Ġ````````````": 8162,
      "transition": 8163,
      "BCino": 8164,
      "=(',',": 8165,
      "```````": 8166,
      "ĠFlashing": 8167,
      "Ġadvance": 8168,
      "ROKEN": 8169,
      "udience": 8170,
      "Ġrawtext": 8171,
      "Ġprogrammer": 8172,
      "Ġchoices": 8173,
      "propagate": 8174,
      "Marked": 8175,
      "cidentally": 8176,
      "Ġslightly": 8177,
      "Ġblack": 8178,
      "Ġstdlib": 8179,
      "Ġensuring": 8180,
      "ĠDistributing": 8181,
      "Ġexploit": 8182,
      "ĠISBN": 8183,
      "Ġcontributors": 8184,
      "ĠFreeNode": 8185,
      "different": 8186,
      "ĠMockCtx": 8187,
      "+----------------------------------------------------+": 8188,
      "BadParameter": 8189,
      "EffectiveLevel": 8190,
      "Jameson": 8191,
      "Nandu": 8192,
      "QZH": 8193,
      "junitxml": 8194,
      "markupsafe": 8195,
      "rrQZH": 8196,
      "ÃĳandÃº": 8197,
      "Ġtmplrv": 8198,
      "Ġpulled": 8199,
      "Ġdummy": 8200,
      "ĠTravis": 8201,
      "ĠMetaData": 8202,
      "capsulate": 8203,
      "boardInterrupt": 8204,
      "pingÃ¼ino": 8205,
      "ĠFileSystemLoader": 8206,
      "\"%": 8207,
      "%\\": 8208,
      "'[": 8209,
      "-================": 8210,
      ".:": 8211,
      "218": 8212,
      "326": 8213,
      "3000": 8214,
      "410": 8215,
      "40000": 8216,
      "529": 8217,
      "560": 8218,
      "627": 8219,
      "726": 8220,
      "728": 8221,
      "818": 8222,
      "858": 8223,
      "968": 8224,
      ":'": 8225,
      "<%": 8226,
      ">/": 8227,
      ">\")": 8228,
      "BOM": 8229,
      "CU": 8230,
      "Celery": 8231,
      "CLI": 8232,
      "DF": 8233,
      "EI": 8234,
      "Even": 8235,
      "From": 8236,
      "FIN": 8237,
      "Finally": 8238,
      "Google": 8239,
      "Handlers": 8240,
      "List": 8241,
      "MAP": 8242,
      "Out": 8243,
      "ORL": 8244,
      "PP": 8245,
      "Page": 8246,
      "Plat": 8247,
      "String": 8248,
      "Sentry": 8249,
      "SOURCEDIR": 8250,
      "TDIR": 8251,
      "WI": 8252,
      "WTFor": 8253,
      "WORL": 8254,
      "XSS": 8255,
      "]):": 8256,
      "]).": 8257,
      "dc": 8258,
      "don": 8259,
      "each": 8260,
      "fa": 8261,
      "gal": 8262,
      "grim": 8263,
      "hand": 8264,
      "home": 8265,
      "just": 8266,
      "migrate": 8267,
      "multidict": 8268,
      "ness": 8269,
      "neth": 8270,
      "ox": 8271,
      "ops": 8272,
      "rd": 8273,
      "rast": 8274,
      "ronacher": 8275,
      "sig": 8276,
      "tod": 8277,
      "uiltin": 8278,
      "vation": 8279,
      "whel": 8280,
      "zA": 8281,
      "zone": 8282,
      "|,": 8283,
      "}%": 8284,
      "~=": 8285,
      "Ġont": 8286,
      "Ġtt": 8287,
      "eroku": 8288,
      "inci": 8289,
      "inished": 8290,
      "reuse": 8291,
      "recomm": 8292,
      "recwarn": 8293,
      "enu": 8294,
      "ensible": 8295,
      "Ġsw": 8296,
      "Ġspeak": 8297,
      "Ġcv": 8298,
      "Ġcut": 8299,
      "Ġcaches": 8300,
      "Ġfault": 8301,
      "Ġfour": 8302,
      "Ġfaster": 8303,
      "Ġfair": 8304,
      "decor": 8305,
      "alf": 8306,
      "Ġwise": 8307,
      "Ġbat": 8308,
      "Ġindependent": 8309,
      "Ġrev": 8310,
      "around": 8311,
      "armin": 8312,
      "arison": 8313,
      "):\\": 8314,
      "rote": 8315,
      "Ġ->": 8316,
      "Ġthus": 8317,
      "Ġthrow": 8318,
      "ilgrim": 8319,
      "Ġmer": 8320,
      "Ġmapping": 8321,
      "Ġmiddlewares": 8322,
      "Ġmenu": 8323,
      "Ġrisk": 8324,
      "Ġdat": 8325,
      "Ġden": 8326,
      "Ġho": 8327,
      "Ġhon": 8328,
      "Ġhis": 8329,
      "Ġhalf": 8330,
      "under": 8331,
      "uninstalled": 8332,
      "unbit": 8333,
      "')``.": 8334,
      "ceed": 8335,
      "versed": 8336,
      "',)": 8337,
      "Ġflasky": 8338,
      "vices": 8339,
      "Ġ``@": 8340,
      "()):": 8341,
      "Ġexit": 8342,
      "Ġtestcase": 8343,
      "pyo": 8344,
      "Ġcoer": 8345,
      "Ġcoded": 8346,
      "Ġstri": 8347,
      "peat": 8348,
      "Ġclassifi": 8349,
      "abc": 8350,
      "abfile": 8351,
      "abilities": 8352,
      "ĠIN": 8353,
      "ĠImp": 8354,
      "ĠĠĠĠĠĠĠĠĠĠĠĠĠĠĠĠĠĠĠĠĠĠĠĠĠĠĠĠĠĠĠĠĠĠĠĠĠĠĠĠĠĠĠĠ": 8355,
      "Ġ\":": 8356,
      "Ġ\"('": 8357,
      "Ġ\"</": 8358,
      "oop": 8359,
      "ĠNever": 8360,
      "ĠSer": 8361,
      ":////": 8362,
      "Ġalter": 8363,
      "Ġalert": 8364,
      "ndpoint": 8365,
      "prising": 8366,
      "idman": 8367,
      "ĠPilgrim": 8368,
      "ĠFinished": 8369,
      "Ġprogress": 8370,
      "Ġproxi": 8371,
      "define": 8372,
      "ĠThings": 8373,
      "TestTools": 8374,
      "Ġgues": 8375,
      "Ġenc": 8376,
      "Ġencode": 8377,
      "Ġencoders": 8378,
      "Ġsoftware": 8379,
      "classes": 8380,
      "Ġsetdefault": 8381,
      "ĠBoolean": 8382,
      "ĠBROKEN": 8383,
      "__)``.": 8384,
      "ĠUbuntu": 8385,
      "ĠCSS": 8386,
      "Ġ<=": 8387,
      "ĠHandl": 8388,
      "Ġadapt": 8389,
      "ĠMimetype": 8390,
      "cient": 8391,
      "SECU": 8392,
      "achute": 8393,
      "caught": 8394,
      "ĊĠĠĠĠĠĠĠĠĠĠĠĠĠĠĠĠĠĠĠĠĠĠ": 8395,
      "previous": 8396,
      "Ġchat": 8397,
      "parts": 8398,
      "ĠLight": 8399,
      "acter": 8400,
      "bump": 8401,
      "proxy": 8402,
      "proxies": 8403,
      "Ġneat": 8404,
      "ĠRew": 8405,
      "`.)": 8406,
      "Ġcontrast": 8407,
      "=\"#\"": 8408,
      "238": 8409,
      "console": 8410,
      "END": 8411,
      "225": 8412,
      "GIN": 8413,
      "ĠOR": 8414,
      "directories": 8415,
      "dbinit": 8416,
      "Ġsubsequent": 8417,
      "2742": 8418,
      "2730": 8419,
      "2736": 8420,
      "2735": 8421,
      "2748": 8422,
      "2731": 8423,
      "2751": 8424,
      "been": 8425,
      "space": 8426,
      "292": 8427,
      "295": 8428,
      "246": 8429,
      "209": 8430,
      "Ġpathnames": 8431,
      "venant": 8432,
      "339": 8433,
      "Ġ$.": 8434,
      "notice": 8435,
      "area": 8436,
      "locked": 8437,
      "Ġlogical": 8438,
      "Ġoverwhel": 8439,
      "textarea": 8440,
      "ĠTestTestTools": 8441,
      "ĠEllipsis": 8442,
      "Ġanywhere": 8443,
      "Ġlegal": 8444,
      "309": 8445,
      "ĠRequired": 8446,
      "Ġ}}{{": 8447,
      "share": 8448,
      "3497": 8449,
      "358": 8450,
      "ĠNotes": 8451,
      "Ġ--------------------------------": 8452,
      "icks": 8453,
      "Ġopenid": 8454,
      "SDIR": 8455,
      "ifies": 8456,
      "Ġinitial": 8457,
      "Ġtransp": 8458,
      "598": 8459,
      "\"></": 8460,
      "uctured": 8461,
      "Ġprinci": 8462,
      "devcenter": 8463,
      "Ġprinted": 8464,
      "Ġcompare": 8465,
      "402": 8466,
      "ĠUnfortunately": 8467,
      "ĠLoad": 8468,
      "ĠLoading": 8469,
      "389": 8470,
      "vents": 8471,
      "Ġbumps": 8472,
      "+-----------------": 8473,
      "passenv": 8474,
      "567": 8475,
      "483": 8476,
      "586": 8477,
      "ĠStack": 8478,
      "ĠStandard": 8479,
      "ĠStreaming": 8480,
      "Ġimplicit": 8481,
      "Ġimplying": 8482,
      "gravatar": 8483,
      "Ġconverts": 8484,
      "Ġschemal": 8485,
      "ĠPrompt": 8486,
      "UTC": 8487,
      "Project": 8488,
      "callable": 8489,
      "Ġthroughout": 8490,
      "Ġlocalhost": 8491,
      "ResponseBase": 8492,
      "ConfigTestCase": 8493,
      "Submount": 8494,
      "extensionname": 8495,
      "extensiondev": 8496,
      "Users": 8497,
      "Ġrightmost": 8498,
      "ĠConduct": 8499,
      "Ġ1024": 8500,
      "Ġdeveloped": 8501,
      "Creating": 8502,
      "ĠSubDomain": 8503,
      "ĠGenerally": 8504,
      "Ġ]))": 8505,
      "binds": 8506,
      "easily": 8507,
      "Ġtransmit": 8508,
      "Ġ'\"<": 8509,
      ".*))": 8510,
      "Ġcloses": 8511,
      "Ġattaching": 8512,
      "Ġrelational": 8513,
      "ears": 8514,
      "Ġ?,": 8515,
      "ĠDebugHandler": 8516,
      "Ġ============================": 8517,
      "model": 8518,
      "Ġpreventing": 8519,
      "Ġ-----------------------------------------------------": 8520,
      "Ġdecide": 8521,
      "1301": 8522,
      "Ġhashes": 8523,
      "interactive": 8524,
      "-(:": 8525,
      "Ġcommits": 8526,
      "Ġdecorate": 8527,
      "ccc": 8528,
      "Expands": 8529,
      "Ġshortcut": 8530,
      "ĊĠĠĠĠĠĠĠĠĠĠĠĠĠĠĠĠĠĠĠĠĠĠĠĠĠĠĠĠĠĠĠĠĠĠĠĠĠ": 8531,
      "Ġdocutils": 8532,
      "Ġinferred": 8533,
      "ĠComp": 8534,
      "ĠIssue": 8535,
      "+````````````````````": 8536,
      "eventlet": 8537,
      "Installing": 8538,
      "Ġcombines": 8539,
      "libev": 8540,
      "PROPFIN": 8541,
      "Modules": 8542,
      "Ġsorting": 8543,
      "Ġmarkupsafe": 8544,
      "Ġgreatly": 8545,
      "iliar": 8546,
      "published": 8547,
      "Ġtreated": 8548,
      "limited": 8549,
      "+==========": 8550,
      "ĠProvides": 8551,
      "ĠQuick": 8552,
      "Ġentirely": 8553,
      "Ġperfectly": 8554,
      "two": 8555,
      "ENOENT": 8556,
      "ENOTDIR": 8557,
      "ĠEverything": 8558,
      "Frame": 8559,
      "Ġocurred": 8560,
      "Initialized": 8561,
      "Ġaccomplished": 8562,
      "Ġmailinglist": 8563,
      "ĠClasses": 8564,
      "ĠMITM": 8565,
      "LocalProxy": 8566,
      "roubleshooting": 8567,
      "iversal": 8568,
      "Ġmounting": 8569,
      "('../'):": 8570,
      "Ġartwork": 8571,
      "CloudPlat": 8572,
      "('-'": 8573,
      "ĠTRAVIS": 8574,
      "Ġorganize": 8575,
      "Ġcomplicated": 8576,
      "Ġguarante": 8577,
      "ĠValidationError": 8578,
      "ĠTextField": 8579,
      "Ġstandalone": 8580,
      "Ġembed": 8581,
      "Ġdelegate": 8582,
      "Ġ;)": 8583,
      "Ġaccording": 8584,
      "MTPHandler": 8585,
      "EISDIR": 8586,
      "GoogleCloudPlat": 8587,
      "WTForm": 8588,
      "WORLD": 8589,
      "handy": 8590,
      "today": 8591,
      "Ġonto": 8592,
      "Ġspeaking": 8593,
      "decoration": 8594,
      "Ġclassifiers": 8595,
      "Ġproxied": 8596,
      "Ġguessed": 8597,
      "ĠBooleanField": 8598,
      "SECURE": 8599,
      "ĠLighty": 8600,
      "Ġoverwhelming": 8601,
      "ĠStreamingTestCase": 8602,
      "Ġschemaless": 8603,
      "PROPFIND": 8604,
      "GoogleCloudPlatform": 8605,
      "!/": 8606,
      "\"|": 8607,
      "'},": 8608,
      "'\"))": 8609,
      "+):": 8610,
      "+))": 8611,
      "+{{": 8612,
      "+**": 8613,
      "+========================": 8614,
      "++------------------": 8615,
      "-))": 8616,
      "-========================": 8617,
      "/``": 8618,
      "2118": 8619,
      "310": 8620,
      "316": 8621,
      "380": 8622,
      "415": 8623,
      "454": 8624,
      "519": 8625,
      "527": 8626,
      "612": 8627,
      "687": 8628,
      "717": 8629,
      "789": 8630,
      "838": 8631,
      "874": 8632,
      "8000": 8633,
      "980": 8634,
      "<=": 8635,
      ">'),": 8636,
      "?</": 8637,
      "ASSWORD": 8638,
      "CO": 8639,
      "Caching": 8640,
      "Ent": 8641,
      "Email": 8642,
      "Gar": 8643,
      "HP": 8644,
      "IBU": 8645,
      "Ign": 8646,
      "IZE": 8647,
      "KZE": 8648,
      "LighttpdCGIRootFix": 8649,
      "Map": 8650,
      "Namespace": 8651,
      "OPTION": 8652,
      "PL": 8653,
      "Public": 8654,
      "Same": 8655,
      "Single": 8656,
      "SIZE": 8657,
      "UG": 8658,
      "Want": 8659,
      "WER": 8660,
      "Wel": 8661,
      "_>`_.": 8662,
      "aff": 8663,
      "aemon": 8664,
      "break": 8665,
      "came": 8666,
      "cum": 8667,
      "dadi": 8668,
      "gab": 8669,
      "hop": 8670,
      "ia": 8671,
      "istr": 8672,
      "mers": 8673,
      "nThe": 8674,
      "off": 8675,
      "ply": 8676,
      "rtype": 8677,
      "twit": 8678,
      "udo": 8679,
      "wisted": 8680,
      "xffff": 8681,
      "ytes": 8682,
      "ycle": 8683,
      "zure": 8684,
      "}),": 8685,
      "ðŁ": 8686,
      "čĊĠĠĠĠĠĠ": 8687,
      "Ġ~~~~~~~~": 8688,
      "Ġouter": 8689,
      "eries": 8690,
      "ining": 8691,
      "hellow": 8692,
      "heeses": 8693,
      "regist": 8694,
      "Ġsans": 8695,
      "Ġsigning": 8696,
      "Ġcru": 8697,
      "Ġcheeses": 8698,
      "Ġfle": 8699,
      "Ġfly": 8700,
      "Ġfrozen": 8701,
      "estring": 8702,
      "alternative": 8703,
      "ouse": 8704,
      "itect": 8705,
      "seudo": 8706,
      "stra": 8707,
      "ana": 8708,
      "ĊĠĊĠĊĠĠĠĠ": 8709,
      "lision": 8710,
      "ĊĠĠĠĠĠĠĠĠĠĠĠĠĠĠĠĠĠĠĠĠĠĠĠĠĠĠĠĠĠĠĠĠĠ": 8711,
      "```": 8712,
      "Ġtoday": 8713,
      "Ġreject": 8714,
      "Ġreply": 8715,
      "Ġpare": 8716,
      "serif": 8717,
      "Ġ''.": 8718,
      "Ġmulti": 8719,
      "Ġnor": 8720,
      "Ġhar": 8721,
      "Ġhide": 8722,
      "Ġhanded": 8723,
      "und": 8724,
      "unk": 8725,
      "unhandled": 8726,
      "unlocked": 8727,
      "Ġselection": 8728,
      "Ġascii": 8729,
      "Ġ+--------------------------------": 8730,
      "Ġdefining": 8731,
      "odox": 8732,
      "Ġubuntu": 8733,
      "__('": 8734,
      "ategies": 8735,
      "accept": 8736,
      "ĠTip": 8737,
      "ĠTroubleshooting": 8738,
      "tested": 8739,
      "Ġbecame": 8740,
      "Ġ``\"": 8741,
      "Ġcost": 8742,
      "Ġstylesheet": 8743,
      "forwards": 8744,
      "Ġeffect": 8745,
      "Ġepub": 8746,
      "pet": 8747,
      "Ġ\"-": 8748,
      "Ġ\"_": 8749,
      "ĠSche": 8750,
      "ĠSource": 8751,
      "ĠSPHINX": 8752,
      "ĠSnipp": 8753,
      "Ġalone": 8754,
      "ĠWatch": 8755,
      "ĠWARNING": 8756,
      "ĠApr": 8757,
      "ĠAda": 8758,
      "ĠAzure": 8759,
      "ĠPer": 8760,
      "ĠPackage": 8761,
      "ĠPublic": 8762,
      "ĠPATH": 8763,
      "ĠPish": 8764,
      "ĠPASSWORD": 8765,
      "Ġinstruct": 8766,
      "Ġprofiles": 8767,
      "amond": 8768,
      "Ġwhatever": 8769,
      "dedent": 8770,
      "Ġsocial": 8771,
      "Ġlie": 8772,
      "Ġlife": 8773,
      "Ġ25": 8774,
      "Ġ28": 8775,
      "ĠUSER": 8776,
      "ĠCI": 8777,
      "Ġ19": 8778,
      "Ġunknown": 8779,
      "ĠMem": 8780,
      "trunk": 8781,
      "Ġshipped": 8782,
      "141": 8783,
      "1484": 8784,
      "csp": 8785,
      "136": 8786,
      "ĠInject": 8787,
      "ĠInstruct": 8788,
      "ĠIndependent": 8789,
      "Ġ416": 8790,
      "Ġstrategies": 8791,
      "ĠRespon": 8792,
      "ĠRedi": 8793,
      "ĠRouter": 8794,
      "ĠRendering": 8795,
      "Requested": 8796,
      "RequestDeprecation": 8797,
      "Ġworkaround": 8798,
      "Ġvisible": 8799,
      "ExceptionHandlerDict": 8800,
      "Ġ32": 8801,
      "Ġ3333": 8802,
      "192": 8803,
      "Ġfollower": 8804,
      "Ġfollowed": 8805,
      "Ġinstallations": 8806,
      "ĠValue": 8807,
      "ĠVALU": 8808,
      "directly": 8809,
      "1730": 8810,
      "Ġsubdirectories": 8811,
      "ĠFormatter": 8812,
      "270": 8813,
      "Ġreside": 8814,
      "mypackage": 8815,
      "myproject": 8816,
      "Ġmodifies": 8817,
      "INSER": 8818,
      "2926": 8819,
      "2011": 8820,
      "2068": 8821,
      "crement": 8822,
      "Ġloaders": 8823,
      "Ġdirectives": 8824,
      "Ġpathname": 8825,
      "Ġjquery": 8826,
      "Ġlookup": 8827,
      "ĠJSONEncoder": 8828,
      "lucum": 8829,
      "runserver": 8830,
      "Ġscripting": 8831,
      "Ġoverhead": 8832,
      "Ġoverloaded": 8833,
      "Ġdocumenting": 8834,
      "istribution": 8835,
      "ĠTestRequestDeprecation": 8836,
      "ĠEven": 8837,
      "ĠEdge": 8838,
      "simplecodes": 8839,
      "Ġletters": 8840,
      "308": 8841,
      "340": 8842,
      "Ġmegab": 8843,
      "ĠGuide": 8844,
      "361": 8845,
      "365": 8846,
      "369": 8847,
      "352": 8848,
      "357": 8849,
      "brary": 8850,
      "exampleapp": 8851,
      "280": 8852,
      "286": 8853,
      "(\"/<": 8854,
      "img": 8855,
      "597": 8856,
      "447": 8857,
      "448": 8858,
      "Ġdbcon": 8859,
      "autouse": 8860,
      "openid": 8861,
      "370": 8862,
      "Ġposition": 8863,
      "Ġserving": 8864,
      "IOError": 8865,
      "ĠWhitespace": 8866,
      "Ġzipp": 8867,
      "Ġtagged": 8868,
      "Ġbuf": 8869,
      "+----------------------------": 8870,
      "Ġprocessors": 8871,
      "Ġ=====================": 8872,
      "Ġiterable": 8873,
      "BaseResponse": 8874,
      "BaseCache": 8875,
      "ĠAdditional": 8876,
      "\\\\/": 8877,
      "poses": 8878,
      "494": 8879,
      "499": 8880,
      "Streaming": 8881,
      "eggs": 8882,
      "Ġintelli": 8883,
      "assertEquals": 8884,
      "docstring": 8885,
      "Ġoverrides": 8886,
      "+``<": 8887,
      "iterator": 8888,
      "IRC": 8889,
      "ĠFLASKR": 8890,
      "698": 8891,
      "Configuring": 8892,
      "Ġhardcodes": 8893,
      "Ġ{'_": 8894,
      "ĠAssuming": 8895,
      "autoapp": 8896,
      "SubDomain": 8897,
      "Ġtrivi": 8898,
      "Ġ(\"/": 8899,
      "Ġ}}\"></": 8900,
      "=[]):": 8901,
      "ĠincludeSubDomain": 8902,
      "Ġpurposes": 8903,
      "Ġunicodedata": 8904,
      "Ġassuming": 8905,
      "contributor": 8906,
      "('.'))": 8907,
      "Ġ===============": 8908,
      "URI": 8909,
      "Ġcombinations": 8910,
      "'}).": 8911,
      "Only": 8912,
      "TRIBU": 8913,
      "-``<": 8914,
      "Ġadministr": 8915,
      "Ġconstructs": 8916,
      "canonical": 8917,
      "Ġattaches": 8918,
      "Ġcollision": 8919,
      "supported": 8920,
      "Ġintroduces": 8921,
      "Ġclearing": 8922,
      "Ġdispatcher": 8923,
      "Ġ?)',": 8924,
      "ĠCustomFlask": 8925,
      "signout": 8926,
      "TaggedJSONSerializer": 8927,
      "ĠKeyan": 8928,
      "Ġconsidering": 8929,
      "Ġ==========================": 8930,
      "Ġ==============================": 8931,
      "Ġ--------------------------------------------------------------": 8932,
      "ERROR": 8933,
      "ĠBaseLoader": 8934,
      "flush": 8935,
      "CHANGES": 8936,
      "pluginmanager": 8937,
      "Ġmoment": 8938,
      "+---------------------": 8939,
      "target": 8940,
      "Ġinstantiation": 8941,
      "Ġinstantiate": 8942,
      "largerapp": 8943,
      "Ġrepresentation": 8944,
      "DataMiddleware": 8945,
      "Ġreplacing": 8946,
      "Ġmanagement": 8947,
      "Setuptools": 8948,
      "exists": 8949,
      "ĠLimited": 8950,
      "Share": 8951,
      "ectively": 8952,
      "ĠTrying": 8953,
      "aredDataMiddleware": 8954,
      "Ġbasename": 8955,
      "Ġbasestring": 8956,
      "HttpOnly": 8957,
      "Ġstricter": 8958,
      "ĠAbsolute": 8959,
      "Useful": 8960,
      "Ġoptim": 8961,
      "Ġexplanatory": 8962,
      "OrderedDict": 8963,
      "dictionary": 8964,
      "notanpp": 8965,
      "Ġgreeting": 8966,
      "Ġwidths": 8967,
      "unicate": 8968,
      "ronous": 8969,
      "Ġ'..'": 8970,
      "Ġ'..',": 8971,
      "Ġleaks": 8972,
      "Ġpainful": 8973,
      "Framework": 8974,
      "ĠListConverter": 8975,
      "SecureCookieSession": 8976,
      "Ġgravatar": 8977,
      "ĠLatin": 8978,
      "ĠReference": 8979,
      "ĠExtDeprecationWarning": 8980,
      "Ġsync": 8981,
      "Finds": 8982,
      "elements": 8983,
      "orthodox": 8984,
      "Ġfetching": 8985,
      "singlehtml": 8986,
      "ĠOperator": 8987,
      "azyView": 8988,
      "ĠArchives": 8989,
      "Ġtweaks": 8990,
      "Ġsufficiently": 8991,
      "ĠALLOWED": 8992,
      "Ġdestroyed": 8993,
      "friends": 8994,
      "Ġgained": 8995,
      "Ġevaluate": 8996,
      "Ġterminal": 8997,
      "Ġfamiliar": 8998,
      "Ġissued": 8999,
      "Ġordinary": 9000,
      "DispatchingJinjaLoader": 9001,
      "ImportHookTestCase": 9002,
      "Shortcut": 9003,
      "Ġwisely": 9004,
      "Ġstripped": 9005,
      "ĠINTO": 9006,
      "Ġtransparently": 9007,
      "++------------------+----------------------------------------------------+": 9008,
      "Entity": 9009,
      "Garamond": 9010,
      "Ignored": 9011,
      "KZEUG": 9012,
      "WERKZEUG": 9013,
      "Welcome": 9014,
      "dadian": 9015,
      "twitbox": 9016,
      "xffffffff": 9017,
      "helloworld": 9018,
      "Ġcrucial": 9019,
      "Ġcheeseshop": 9020,
      "Ġfrozenset": 9021,
      "itecture": 9022,
      "straction": 9023,
      "Ġ+-----------------------------------------+----------+----------+----------+": 9024,
      "ĠSnippet": 9025,
      "ĠAdapt": 9026,
      "ĠPishdadian": 9027,
      "ĠUSERNAME": 9028,
      "ĠRedirection": 9029,
      "ĠVALUES": 9030,
      "INSERT": 9031,
      "lucumr": 9032,
      "Ġmegabytes": 9033,
      "Ġzipping": 9034,
      "Ġintelligent": 9035,
      "ĠincludeSubDomains": 9036,
      "TRIBUT": 9037,
      "\"\\\\": 9038,
      "\"})": 9039,
      "'>": 9040,
      "'^": 9041,
      ")\")": 9042,
      "*(?:": 9043,
      "-.": 9044,
      "-/": 9045,
      "-|": 9046,
      "-========": 9047,
      ".%": 9048,
      "/--": 9049,
      "/\")": 9050,
      "1000": 9051,
      "2231": 9052,
      "319": 9053,
      "325": 9054,
      "3163": 9055,
      "416": 9056,
      "456": 9057,
      "522": 9058,
      "517": 9059,
      "525": 9060,
      "544": 9061,
      "659": 9062,
      "697": 9063,
      "715": 9064,
      "716": 9065,
      "825": 9066,
      "844": 9067,
      "8259": 9068,
      "934": 9069,
      "935": 9070,
      "965": 9071,
      "=<": 9072,
      "=(),": 9073,
      ">'))": 9074,
      ">`,": 9075,
      "@\\": 9076,
      "AF": 9077,
      "Bl": 9078,
      "BROK": 9079,
      "Builtin": 9080,
      "Col": 9081,
      "Db": 9082,
      "Date": 9083,
      "Favicon": 9084,
      "FIG": 9085,
      "GE": 9086,
      "Greenlet": 9087,
[...]
